node {
  name: "input_1"
  op: "Placeholder"
  attr {
    key: "dtype"
    value {
      type: DT_FLOAT
    }
  }
  attr {
    key: "shape"
    value {
      shape {
        dim {
          size: -1
        }
        dim {
          size: 512
        }
        dim {
          size: 640
        }
        dim {
          size: 3
        }
      }
    }
  }
}
node {
  name: "Conv1_pad/Pad/paddings"
  op: "Const"
  attr {
    key: "dtype"
    value {
      type: DT_INT32
    }
  }
  attr {
    key: "value"
    value {
      tensor {
        dtype: DT_INT32
        tensor_shape {
          dim {
            size: 4
          }
          dim {
            size: 2
          }
        }
        tensor_content: "\000\000\000\000\000\000\000\000\000\000\000\000\001\000\000\000\000\000\000\000\001\000\000\000\000\000\000\000\000\000\000\000"
      }
    }
  }
}
node {
  name: "Conv1_pad/Pad"
  op: "Pad"
  input: "input_1"
  input: "Conv1_pad/Pad/paddings"
  attr {
    key: "T"
    value {
      type: DT_FLOAT
    }
  }
  attr {
    key: "Tpaddings"
    value {
      type: DT_INT32
    }
  }
}
node {
  name: "Conv1/kernel"
  op: "Const"
  attr {
    key: "dtype"
    value {
      type: DT_FLOAT
    }
  }
  attr {
    key: "value"
    value {
      tensor {
        dtype: DT_FLOAT
        tensor_shape {
          dim {
            size: 3
          }
          dim {
            size: 3
          }
          dim {
            size: 3
          }
          dim {
            size: 32
          }
        }
        tensor_content: "\n\214\212\277\367\320g\275o\2042?\371\035\340\235\277zx\276\0303\217>\375\260e\277\304\317\273\2337\240\350\274\017b0>\335\237\311\277\270]\357\033\331\313\216\233\312\206\313\033O9\361>\302\270O=79o\271\374\371*\27783\341\276\0332\321\035k\370\002\277\263\005w?\314eT\276cg\'?\300\0242\2777d\322>\325\033\233:\325\014\221\276\330\306\'\034\374\253\371>t\307\202?\265\357\320>\203\241\217\2778\032\316\276\225\203\017?\364\246\377\235at\205\277\'p\253=k\264N\277D\030 \033\203\332\270=M\026\337>\330]\300\277\333p\333\033\224&G\033a\361n\033P\234\311>\016;==K\362^\270_[C\277\221\225\020\277\213\305n\035\240l\304\276\'/\221?&\246\243\276R\0275?0U<\277\253w\336>\301\262\020;\234\317|\276\204\325B\233\274\310\010?J$\244?`\021\230>;\243O\277\250\326\350\275\273\345d?$6\205\234\274\302r<\241?\321>\231\307>\277\347\004\264\031Cu\">\230\321\231>\214]\217\2778\206\324\033\3079\006\034\030M\310\032@?H>g\243\313=\367\275\325\267\321\237\023\277\r\315G\277\031\215\240\035\203\306\002\277p3\214?\276\306\001\276\206\351N?!\330\322\276\n\025\310>\214\355\354:\342W\354\275+Q\006\234^;\010?\225\366\177?s\250\215>\213\377\310\277\351ll?e-\006?fK\256\235\004=\332\276\030x\205\276\340\322}\277\212\035\006\234\246\272\274>\024\036t>6G\217\277U\370\312\033\305\004y\033I\311d\033\250o8?\312/G?\247\315\253\271R\017\010\275G\034\020\277\372\231\223\035\330\330\016\277\263B7?\235Ny?\254\007:?\222Jl\277\222\322\034\276#\305\0139\024\345\232>\224\'J\034*\306\362\274[)R?\372\363\274>\262\236\325\277\356\233\224?\240c=?/\367\302\23536\221\277o\n\271\276k\326`\277\332\275\233\233V\245\027?\177(\017?Y\342\177\277\311\366\221\033\022&\033\034\023l\277\033\264\362W?h$q?\371\364N\271\205\365W\276\362]\326\2763M?\033\304\025\313\276\376\255\315?\037\347\225?\216j6?\325+\201\277\2257\343\275\303\301\203:t\2729?\355\370\002\233\370\014\022=U\254L?\260\370\355>1\223\235\277w\304\026?u\014e?#\201?\0341\022\250\275:\243A\276\274\226_\277::\270\233\316\255\356>./\233>\003\347S\277{\350\243\033\337~\021\034^\322\273\033\376\231\002?SS7?\371OG\271\343.\250=\024\2018\277\217\220\\\035\224\200\352\276 c\250?2\302Y?\251\372g?\177\207!\277\352GB\276T\\(:Fg\242>\201\'\363\2336\303\364=\177DF?\204\321\310>\037\272\223\277I\006\311>\247C\351>\020\000\203\235\242\320\036\277\337\311\237=v\375g\277\254S\027\033\021\2409>\021\3520\276\343>\202\277r\236\302\0336= \034\000P*\233\017\311\301>\014\322h=\233\323\253\271\n\201\332>\374\321\007\277\370\341S\034\216\237\360\2766\325\377>\031\276\274>\216\264H?\346\262\323\276\324D\241\276_\027\210\271\351d\237\276\240\366\024\034\355*(\277{&1?HW2>\323\376\210\277\n!\230>k\224H?]\323\221\235\247\036$\277\352P\316=\036\030?\277_\374\267\032<\204\210>\025\016\236\274\006\037}\277\206q7\033\243\311P\034\272J\316\033\274\"\337>\213\231\023>\334\006\220\271\250\341\022?\366\364\r\276\320\320\231\235\352^\215\276\017\027\223?\'\265\370>\276\\6?\331\233\255\276E\331\200\276\333\206\2479?U\274\276\037E\253\231\213P\200\277\035\2434?E\220\257>j\237l\277\362\257D>\360\323N?\032\210\231\034\231\233\017\277\035!0>\261aF\277T\254\010\033_\211\301>\267\004\320\274\024\357P\277\364\n\224\033\365\240z\034\2446\002\034\220L\022>68;=a\316\220\271\325\304\375>jH0\277%\335\214\034\260\362\221\276j\224\202?\253K*?/\237{?\305Yl\276\271\244\242\276?\032\2748\217\004\033\275Q\037\264\233\022\nE\277\311\240K?\255%\266>\221c+\277\013\331E\2769(B?\004@\377\235\274\003\031>q\300U\277\272\202j\277\241\3333\234l\034w\276\314\314w\277\307\022\237\277x\325\"\034K_\313\231\004\276$\034\212\312\243>S\245\374\276\360 \000\271\037\362i\277\245\254\000\277\223\370\024\036W\333\010\277\364&\242>PO\211\276\034%\024?m\276\203\277B\321\035<}\310\205:\332HY\276\252\346\315\033\271\022#>\013j6?\365#\367>l\007\271\276\n\t\016\277\331-\036?\231r\r\236\253z\001\277\020~\221\277_\317O\277\033+2\234`p\335\274\002\245\202\277rz\221\277p\306\376\033e?\016\034rb\377\033\227]\202>\267V\024\277P\205\3678\223\321\200\277\333\224\340\276\212v\326\035\027\023\323\276[\371\207?I\257\t>\362\3557?)\002\200\277\216\205\022\276_s\372:\357\000\346\275\200!d\233c\266n?\375LJ?\353^\036>\347\314\037\277I\220\003\276a\201D?\253\232G\235\260\344\343>\365?\026\277\204TV\277T\225\026\234o\tN\276\242l)\277\200\277\201\277\353m\037\034\376\277\255\033\217D\253\033\315\r\262=-\266\320\276\271S\0339F\227O\277,\000-\277\0036\226\035\3058\376\276\356$H?Yj,\276\013\310+?d\346H\277\244\2158=,\307\301:_:\266\275\203\315\033\234\202\270g?\215\363[?o\323\202>\345<\201\277\254\031\211?{\345\t?\213\250\303\235uh%>M\312\215\276\316(\226\277\216\347\241\234^\357M>\374_\203\277\225\337\224\277\253~\002\034\253\316H\230)aZ\034\341\007\177?\331}\211?\243\2242\271d\231:\275\315\215\022\277\272\241\340\035)\320\022\277\346`\232>E\351@?Z\361!?\370+o\277\013\261H\276u\026B8\241|1>,O\026\034\007c\002\277v\201A?\010\246\323>t\'&\277\037\221\247?\374\272P?\023\241\307\235Fp\'\277?\206\244\276\271\367\202\277K\246\227\234\357\371\360>_\240\223\277\237\276\210\277x\345\302\033\240(*\033\323\'s\034\311\344\203?\222\232\256?\272\232X8\362\373\201\276\031F\373\276Tj\023\035sv\326\276\030\001\263?K\022\032?S\2077?\2000s\277=\254!\276l\240N:\207\213\022?\353\210\314\232\206T\033>\262\3518?<\3672>\223&\205\277\3138-?\262\360I?\265\367\215\234T\000\013?\332OR\276\202\371\217\277\337E\200\234\\\217t>D@0\277\027lh\277\237v\016\034\310\223\217\232\225P!\034\346\211.?\233\275s?\341c\2368\013K\336=-\362\032\2775$\337\034S\246\344\276\272\340w?\256\336w?\020\222=?=\0345\277\341\232\211\2761\211\3349NV\202=K\337\300\233V\366\237>\340\234W?3\276\225>\222\002\207\277\246-0?\021\033\304>\221\032\313\235\304H?>.`[\276\200\335o\277}\340h\233\245d\014>\272\202r\277\271y\214\277=r\014\034{\262H\034\310i\362\032R\253\033?\342P\n?\305\253\202\271\267\360E?\306\033\006\277\202\357\217\035b\237\360\276\357B\240>t+i?\177V1?\344\327D\276\3743\257=\245lm9\301\017D\277\323A\303\033F\376l\277\245\0241?\204\r\254>t\303i\277\362\3531?L\211\\?\233\004\277\235uU\340\275\214\350%\276\223\007J\277\201\250\337\233:\240\234>!wi\277\232h\203\277y\330\356\033|\220\256\0348\225\003\034\202\274\354>R3\037?\037\273\321\270\212]|?}I\214\276\300\212\001\235\035\222\217\276i*\013?\272\322\201?pW:?\335\226\023\276kb%>\216DG:\257\367k\277wz\247\032\201\001U\277\3248H?}\321z>\032\177w\277L\231\325>\267\376G?\nz\244\234Lj)>\024\256\231\275\270Q`\2774\331\000\2341jf>x\337%\277\302/V\277z\231\003\034\232\257\200\034\222\250\177\0333T\270>`e\032?@]\322\270\003}N?\034\230\017\277\262T\275\034\315M\203\276r\307\332>\347\005c?\374tQ?\"\230\327\274\340~\003>\177\256\007:\327\236\324\276\\={\233X_#\277d.[?}\014\255>\030\264~\277\271/\251\275+\320J?4\303\254\235\261\315\035?\304\306f\277;\031_\277\016y\221\031+\026\006\277\272\247\216\2779\325\202\277\221\250\035\034\353\344\240\033G\240_\033\2509\313\271M\262\300\276\353Z\237\271v\3040\277\254\"\321\276Al\336\035r\256\001\277\013\271\370\276{\217\360\276\335\310\010?G(F\277\220\005\347\276LL$:P\t\255\276\266/\217\033\367\314\217<3\253+?\316\221\325>\344\346\200\277\024\355\013\276_\317 ?/3\317\235{\001\367>\260\345~\277\365C7\277\331\032\016\033\177\373\033\277\210\372~\277\351\275\200\277ZX\021\034\323P5\034\250\223\t\033x\312\232\275\'\374\306\276\231\274:8\031\300A\2770\210\035\276\030\374y\035EB\337\276a\332\342=v\227\024\277)7F??\250L\277\267\216#\277*\006\200:\342\017\272\276\350(\206\2337_5?\244\025F?\260Z]>f I\277\305\341\234\276\r:5?\022\340\037\235\350K8?\344N3\277T\337?\277*`\"\033\220\365\235\276\211\344i\277a`[\277D\227\010\0344\214\264\033\033]\365\233\3670.\276`\224z\276\375\250\3318\"\370\013\277\r\317\361\276PT\257\034\312,\360\276\001\322\032\276\225\007\014\277\230\032\020?f\2332\2770f\243\276\377\224\024:\'~#\276I\276+\234\255Q1?2\373N?\233\236\362=\212C`\277\nv\220>\322=#?\331n\216\235\317lF?\267\233\346<\254\220]\277\344\215#\234\302\220\031\277\370z\230\277\245\205\220\277\303\037\343\033\364\251E\034\260\307\364\032\205\020\323>Q\001.?\237\030d\271\343\363\260\275\364\336\313\276\224\221\232\035F\013\n\277\2164i\276\275F\201>\030\332\026?\360\356\032\277\2134}>\376\340\210\270\240\342/\276\252\200\352\033s\245\330\276\224I=?~\204\235>v0Y\277\"\033\214>\237\207D?Y\333\214\235\024\244\377>:7\230<\275\342F\277{\337\014\234\243\276>\277U\265\207\277\3266\204\277-\211\263\033\234Ga\034`\371[\033\355\324\216>.)Q?\326\265\364858B\276OQ\210\276\202\350W\034C\371\336\276!CC>\353\271\016?X\244J?zC\030\277\237\204\264>\355\25129\033x\221\275nG\331\233SM\017>\363\217U?\037;\226>\017a2\277\265\001Z\274b\0278?\004V\274\233\177\016L?\375X\234=\036eO\277\251A\340\233a\315\217\276.\243~\277p\'[\277e\377\262\033\367\347\321\033\202\207\226\233\241U=>\325\353\031?\366\022\0319\025F\201=@\233\303\276-\215\223\233\310\013\327\276L\357\327\275\2074\334>\3753#?c^\002\277\247\340G>R48\271\217\365\023\276ghF\234\230\017r>\350GP?D\321\221>\253\267\202\277\337\306\336=WH\355>\252X\227\235)\327l?\035wM\274\211U`\277\031Z\327\230K[\266\276\362\347\203\277\247)\205\277\032B\027\034\321o\313\033\225\037\033\232\2272\273>\340\337\343>\310H\016\271\322\001\006?\312\337\341\276\353\361`\035\3311\355\276\322\260w\276!o\230>\336\371&?\233\340\214=\366+w>\262\272\302\271\3266\264\276}2\007\034W\247L\277?2,?\325\007o>\223\000v\277\306\310\002\275\242\350M?\243\034\202\235}\2731?(\276\221<\267\3551\277\321\025\036\033Wz\305\276Z\241q\277:tl\277\276\303\000\034\036\345}\034\253\302\235\0339N|>\300!\370>\303-\3738\330n\030?\351\365\216\276\244\325\026\235\341q\245\276h\351\036\277\311p\313>\277\350O?\213T\212=\010\273\236>\247$/\271\211\331i\276Q@\253\030\310\272\346\276\351\2472?\302h_>\024\221C\277D\361\324\275\031\374??^-\372\233j\251g?hE\217=e\017O\277O2\203\033Q\201\204\276\212\356Q\277\203\341G\277u\340\014\034\205a\033\034P\310\261\233u\325\006>\023\264\366>\207b\01390\243\030?\260\347\205\276\007\203\001\034 \033\205\276\007\246\017\277\205a\307>4\2614?\355$=>\333\353\210>s0\314\271\016\350}\276a~}\233\023\371\315\276\367dH?\234\333\207>"
      }
    }
  }
}
node {
  name: "Conv1/convolution"
  op: "Conv2D"
  input: "Conv1_pad/Pad"
  input: "Conv1/kernel"
  attr {
    key: "T"
    value {
      type: DT_FLOAT
    }
  }
  attr {
    key: "data_format"
    value {
      s: "NHWC"
    }
  }
  attr {
    key: "dilations"
    value {
      list {
        i: 1
        i: 1
        i: 1
        i: 1
      }
    }
  }
  attr {
    key: "padding"
    value {
      s: "VALID"
    }
  }
  attr {
    key: "strides"
    value {
      list {
        i: 1
        i: 2
        i: 2
        i: 1
      }
    }
  }
  attr {
    key: "use_cudnn_on_gpu"
    value {
      b: true
    }
  }
}
node {
  name: "bn_Conv1/gamma"
  op: "Const"
  attr {
    key: "dtype"
    value {
      type: DT_FLOAT
    }
  }
  attr {
    key: "value"
    value {
      tensor {
        dtype: DT_FLOAT
        tensor_shape {
          dim {
            size: 32
          }
        }
        tensor_content: "\212-\330?\'\272\001@\273\206\034@\337\3270?\252\222\235?o\271\322?&`\245@\025\362\376>\334\344\330?|7\322?#\270j@\256\332y?6\336r?\367\256j>H\001\356?\364_\324?B\212\205?\253\372\270?PzM@\247g\">\022\337\220?b\236\317?\301L\222?\004\260\343?+X\375?\017\375\260?`ox?,\273\342?<\334\204?\242[\251?qei@\203\001\004?"
      }
    }
  }
}
node {
  name: "bn_Conv1/beta"
  op: "Const"
  attr {
    key: "dtype"
    value {
      type: DT_FLOAT
    }
  }
  attr {
    key: "value"
    value {
      tensor {
        dtype: DT_FLOAT
        tensor_shape {
          dim {
            size: 32
          }
        }
        tensor_content: "\337\243\022@\030\330L@\270\202\224\277\204\232\233\277\035Z3@\377\241=@\373\"\256\300\370\274\"\300\304\277+@\026 \000@fx\223\277\323\363\230\276\001\023H\276\367\374\253\277g\2144@\314\2478@\370/\341;{\254a@\200[X\300\270|\247\277\3657\367?\267}A@\276\363\031@9\327\006>\242\035B@h\232\036@\312\250Z>e,.@\225k\263=<2,@9\342\'\300\032C\235@"
      }
    }
  }
}
node {
  name: "bn_Conv1/moving_mean"
  op: "Const"
  attr {
    key: "dtype"
    value {
      type: DT_FLOAT
    }
  }
  attr {
    key: "value"
    value {
      tensor {
        dtype: DT_FLOAT
        tensor_shape {
          dim {
            size: 32
          }
        }
        tensor_content: "HcK\277\371j{>\257\341\003?O\260\205\235\273\211\331<x\2556\276P\0171\277\034S\213\233t\234\010\275\014M\357\276\336\356\\\277\033\177\275\0339\272\267\033\007Zl\033\r;\261>!\347\203>8\304\354\270\034\362\202\275v`\260\276\226\0276\035\255\037\273\276\344X\265>>\302\201>\"\270\013?\244\306\354\276x\345\307\273\330\375\3219\207\030\013\276\nz&\033\234\253\357\275L<\037?\035\323\201>"
      }
    }
  }
}
node {
  name: "bn_Conv1/moving_variance"
  op: "Const"
  attr {
    key: "dtype"
    value {
      type: DT_FLOAT
    }
  }
  attr {
    key: "value"
    value {
      tensor {
        dtype: DT_FLOAT
        tensor_shape {
          dim {
            size: 32
          }
        }
        tensor_content: "\360\000FC\024\356qA\250\275\321B\000\000\000\000\272\021\010@T\003\032A\033\332\033C\000\000\000\000\264\036\301>\361\314\212B\367[dC\000\000\000\000\000\000\000\000\000\000\000\000}L\000BI\364\275A\304-\3345\247\376\302?\275j,B\000\000\000\000O\r$B\250\237_BH\275\306A\315\006\333B*\353\177B8\2213=\253 \2238X\243\237@\000\000\000\000\301\033\267?\265\265\nC\257\035\240A"
      }
    }
  }
}
node {
  name: "bn_Conv1/FusedBatchNorm_1"
  op: "FusedBatchNorm"
  input: "Conv1/convolution"
  input: "bn_Conv1/gamma"
  input: "bn_Conv1/beta"
  input: "bn_Conv1/moving_mean"
  input: "bn_Conv1/moving_variance"
  attr {
    key: "T"
    value {
      type: DT_FLOAT
    }
  }
  attr {
    key: "data_format"
    value {
      s: "NHWC"
    }
  }
  attr {
    key: "epsilon"
    value {
      f: 0.0010000000475
    }
  }
  attr {
    key: "is_training"
    value {
      b: false
    }
  }
}
node {
  name: "Conv1_relu/Relu6"
  op: "Relu6"
  input: "bn_Conv1/FusedBatchNorm_1"
  attr {
    key: "T"
    value {
      type: DT_FLOAT
    }
  }
}
node {
  name: "expanded_conv_depthwise/depthwise_kernel"
  op: "Const"
  attr {
    key: "dtype"
    value {
      type: DT_FLOAT
    }
  }
  attr {
    key: "value"
    value {
      tensor {
        dtype: DT_FLOAT
        tensor_shape {
          dim {
            size: 3
          }
          dim {
            size: 3
          }
          dim {
            size: 32
          }
          dim {
            size: 1
          }
        }
        tensor_content: "r\010(\277\000\337\214\274J\307[\300B\305\022\3004Ph\301\017\300\317>\302Y\353>\006\225\233\277\036\342t?\301\331\251=\006\3179?N\265\220>\016\3377\277\276\236\007\277{\343\r>f\313b?^\220c\277\374 V?%\211a\277Z5\337>\212\253p>54G\300]\232\236?@\2045@\203E\r\277\275\221\225>\031l\274>W\224\026@nh=>\353 \031\300\236\222\200\275\032\t\236>\345\300\331\300\026\3316@\316\267\232\276%\032=\300\276G\037\300\265\252\370>=\223\014?\003\214w\277\n\272o@|.\247?c\363u?7\232\302>J\377\033\277G+\010\277\326\333$\277\001E\250\277\022T\224\277~,\234=\t@Y\275\256Xv?_\304\n\277\223\365>\301\274#\272?\016\237/@\326s\317\301\324e\371\300\033\343E>\024^x@\320\277\375>M\022i@\260\377\204\276\026q\222?\336\207\352=\260\256\372>\365\2674@\347\217:\300\235\3011\277\253F\222\277\221\251\373>\372\200;\277\212\267y?\270\016\000\276N\355\007\300\332\323C?x\3006\277+\036p\277!|\275\276\264%\023\277\2265\277\277N\321\312>\331F\300>i\344\324\2767\364\302\276!-NA\033\263\271?\3749\005@\035\001\231\277\222\253\331@L\264D>\315\366%>\365\212b=\326\325\025\275>\360\360\276\377\010??hQ\336\277\323_\025\277\020N\250\276\245`C\300\362vPA\340h\257A\373\272\341\277g\352\340\274\225N\303?\027{F\277\375z3\277\244\2022?o9\261\27768F?({\003\300)\241LA\2002\270\276\373f\372@\267\210\361?\251\227\010?\001\357!?\227\312p\301*\301\013@\337\3106@\276,\330\276B\265\214>*Z\321\276\030Y\200\300\264\300`?M\305\200\300\230\220\202\2769J\246?\363\361hA\337U5\301Z\372\271?\006\3701\3005S\030A\311V\203?c\342\rA\271\255\262?\253\213$\301\034\353\226\300\211L\312?\205\222d?\206\367%\277Lrx?C\002UAx\025\026\301$\263\036\277i\256\305\300\240\331\026@\262G\235?\t\370(>B\312\224\301\025\004\006\301h\020%@\014\200=?\353\007\341@\213\2627?\252\034\024\301c9\353>\021\243\205@ik\304@\306p4@\0033\364\277t\343\010\277y\004\021@L\346)\3002H\211\300\035\320\265\301\353h&@-\342T?\036\300\334?Y\312\353\2765\255\013A\321q\352<\261\223\332\277s\301\243\276\235\360\027\300\300\001]\300H\206\'\277\237\371\220?\226\355\037?\227\024\365\275\"\223R\277\022z\354@Q>\240?6\322\031@\213\300\200?\n\333\334\300/Q\355\275\217\'\220>Q\007a\276U\321\366?\343\'\262?\327$\271? \316W\277\370\241\375\276\230\264\\@\007\376\t\300c\245\355@\255<\225\2778\250f>\'\347\313\276\342\005\317>\265\377\376\276\265$M>x\270f>\362\341V\2778\326s?3D<>\370~\355\276\350\356\250\277\204\025\207>T\037.@K\235A\277f\014W>@\372\233A\274N\240?\271=\"@yN}?\374\364\331\276\361\201\333=\276jf?z\033\354=;L\017\276M\016\367>\225I=\300zf\303?\035\220h?\270\020\001@#\315\020\300@r\273\276\006k\005?\2517&\276\336\326\210?L{\n\277\340\'\000A\360\'\027\277\246Zg>\362\003*\277\347\320\'?2\324\000\300\306E\364\276\221\344\237\277A\235\000?\265P\212?\245\244\314\276\025\320$\277\343\232\374@~.\326?>}\020@\303\371\273A\345\337\374>\270\371\262?\343{\000@\312R\224\276\031lq>/c\n?=\251\346=\341\271\362\276\3322\026>\233Q\351>\207\242\020\300\310\341\003\301\3729)>\345h~;\313\251\234>\263\231\203>z\216\206\277x}\220?s\r\263;M\275\227\277\261\307\031\276\031\241\374>\235\nI\276\261\301\265\277\016;\243>\306\350`\277\nHP\277\201\311\231\277\nq\'>,B\234?\323,\006@\263\365@\275By\\\276\360{-?\225\0236>*r;=\"Qe\277\255\033h@\306\3744?"
      }
    }
  }
}
node {
  name: "expanded_conv_depthwise/depthwise"
  op: "DepthwiseConv2dNative"
  input: "Conv1_relu/Relu6"
  input: "expanded_conv_depthwise/depthwise_kernel"
  attr {
    key: "T"
    value {
      type: DT_FLOAT
    }
  }
  attr {
    key: "data_format"
    value {
      s: "NHWC"
    }
  }
  attr {
    key: "dilations"
    value {
      list {
        i: 1
        i: 1
        i: 1
        i: 1
      }
    }
  }
  attr {
    key: "padding"
    value {
      s: "SAME"
    }
  }
  attr {
    key: "strides"
    value {
      list {
        i: 1
        i: 1
        i: 1
        i: 1
      }
    }
  }
}
node {
  name: "expanded_conv_depthwise_BN/gamma"
  op: "Const"
  attr {
    key: "dtype"
    value {
      type: DT_FLOAT
    }
  }
  attr {
    key: "value"
    value {
      tensor {
        dtype: DT_FLOAT
        tensor_shape {
          dim {
            size: 32
          }
        }
        tensor_content: "])\341?e>\005@\214\327\237?\010\257\025?\030\210\000@%\344\010@\312\304\314?z\361\201>\205#\375?\333\213\321?\362\004\254?\227\263G=\352\230\036?u\225(?\371\263\325?\350\354\320?~\311\003?&\253\321?\237D\216?\320EK?\275Ic?\014\240\n@,\242\324?f\202\257?v\010+@\025\232\330?\236]\300\275(_\301?e\372\030=]R\372?\266F\341?\"\224\212?"
      }
    }
  }
}
node {
  name: "expanded_conv_depthwise_BN/beta"
  op: "Const"
  attr {
    key: "dtype"
    value {
      type: DT_FLOAT
    }
  }
  attr {
    key: "value"
    value {
      tensor {
        dtype: DT_FLOAT
        tensor_shape {
          dim {
            size: 32
          }
        }
        tensor_content: "[\265\346?g\3169@\331\201\266>>\317\032\276k$P@\010\021@@\311\376\003?Tif\276hGJ@\034\200_?\223fi?\346\030\272\276\023}\337\276\327\031\206\277\322\341<@\336\361!@V\313\004\277\373\351\017@\374\000\032@h\006\256\277\005\305\357>\036l\007@\241\335\305>p\262#\277\307\211M@\230\260@@\263\266\030\276\357\231@@\217\n\270\276\246\3664@\353_\376<\312\2564="
      }
    }
  }
}
node {
  name: "expanded_conv_depthwise_BN/moving_mean"
  op: "Const"
  attr {
    key: "dtype"
    value {
      type: DT_FLOAT
    }
  }
  attr {
    key: "value"
    value {
      tensor {
        dtype: DT_FLOAT
        tensor_shape {
          dim {
            size: 32
          }
        }
        tensor_content: "\313\n\tA\235\352\336\301\225C\232@\000\000\000\0006\022B\277J\016P\277\276KU@\000\000\000\000b\\v\3007\274O@\\\342(A\000\000\000\000\000\000\000\000\000\000\000\000\250t\234A{\227\336\300\2452R\276U\274\217A\325?\261?\000\000\000\000V\356\203\300\3526i\300\206\214\360@\225\227\226A\"U\235\300\240\\3\277\257;=?\213\370\022\301\250\256\031>\335\242\346@J6\312@C\276\336A"
      }
    }
  }
}
node {
  name: "expanded_conv_depthwise_BN/moving_variance"
  op: "Const"
  attr {
    key: "dtype"
    value {
      type: DT_FLOAT
    }
  }
  attr {
    key: "value"
    value {
      tensor {
        dtype: DT_FLOAT
        tensor_shape {
          dim {
            size: 32
          }
        }
        tensor_content: "\007\020AB\331\016\217C\313GvB\000\000\000\000\025J\217CF\336dCyQ\222B\000\000\000\000\374\340\310B($TA\214\250]C\000\000\000\000\000\000\000\000\000\000\000\000[\326\035Cc\375uB8<Q=D\361\314B\345RBA\000\000\000\000 \017\301@\033\024tC1\301\226A\310\271\007DW3\312Cz\200IC\017w\345>\032\010\032B\200\002\3268\3365zB\177!\nCyI4A"
      }
    }
  }
}
node {
  name: "expanded_conv_depthwise_BN/FusedBatchNorm_1"
  op: "FusedBatchNorm"
  input: "expanded_conv_depthwise/depthwise"
  input: "expanded_conv_depthwise_BN/gamma"
  input: "expanded_conv_depthwise_BN/beta"
  input: "expanded_conv_depthwise_BN/moving_mean"
  input: "expanded_conv_depthwise_BN/moving_variance"
  attr {
    key: "T"
    value {
      type: DT_FLOAT
    }
  }
  attr {
    key: "data_format"
    value {
      s: "NHWC"
    }
  }
  attr {
    key: "epsilon"
    value {
      f: 0.0010000000475
    }
  }
  attr {
    key: "is_training"
    value {
      b: false
    }
  }
}
node {
  name: "expanded_conv_depthwise_relu/Relu6"
  op: "Relu6"
  input: "expanded_conv_depthwise_BN/FusedBatchNorm_1"
  attr {
    key: "T"
    value {
      type: DT_FLOAT
    }
  }
}
node {
  name: "expanded_conv_project/kernel"
  op: "Const"
  attr {
    key: "dtype"
    value {
      type: DT_FLOAT
    }
  }
  attr {
    key: "value"
    value {
      tensor {
        dtype: DT_FLOAT
        tensor_shape {
          dim {
            size: 1
          }
          dim {
            size: 1
          }
          dim {
            size: 32
          }
          dim {
            size: 16
          }
        }
        tensor_content: "uK{>4a*\277Y\303Z?(\323\222\277=*\177>$\266\302\2766k\014?\021\214^\276[\351\014\277)\256\255\276\t\344\255>\316\215\215>\315\2308>\005\300`>\320\000\341\2765\230\227\275\030S~>\363U\006\277\225\235j\275\266}\363\276*r\337>BC\262>\207\247x>}\215\305\275\232\032\223\276\211BU\276\3206\354=1\216\034>e{\362>\237}8?\224ue\277\312Gb\275\233\301A?\026\367\'\277b\023M\277\346\"k?\223\310d\277jb4\277 \262<\277\025\254\006\277\323\240*\277\234x\203?E\203_\277\362tj\277\307\036]?\025SR\27732w?6f:\277&\033\336\234_\301\022\235\375\214\334\235h\223\334\034\341\377\232\236%i^\035\004z\242\034TO\266\034\'\244\037\236Fq\'\236\2003\\\236\255\256\317\034\312\263g\034\316o\"\236\223@\216\035\214\310\230\034\250i\225>C\345\211\274\030x\336\276E%<>\016\222\023\276\347\330\203=\370\033S<\223f\314\276\342I\264\275\374\276\217>\341s>\276\270\265k\277\261\331J?\177\264U\275\270\t)>\361\242\213?\007\243\032?\364\256\221>\301\207\250\276\247\256\t>x\335\324\276/\376\027\276B\260\313\2764G\021\277,B\002\277\234\000\002?\223$8\276\302\010C\277`w\344>\367\311\251\275\362\325\217>\254\364\027\277U\375\007\277\003\014\240\277\351\333n?\206\214\201\277\005\214\220?h,p?\034B\202?\201\326\330\276\036v\211\277j\370\021\277\206\272\177?e\353Q?\n \377>Rn8?\233\200}\277\266b\251>\207\234\203\233\023\031&\234\363\336!\234\033\353\227\0346WO\034?\0073\033#\010\232\2330\324 \234\277\223\240\032t\024M\034\372l~\033\227\303 \034\220\375\267\231p\013\355\233\275T;\233}\311*\033@\354Z\276\2501\262\275\364\270A\277\003$\243\275ee&>\313!\031?w\323j?\305\320)\277}\030`\276\350\3258>\"M>\274\'\025\331\275\245^\202?\242_\001=\3253\001=\221k\216>2\200\215>\345\2618\276\244\360\264\275g\272\325=+ig=\017\302\020?\207\237:>!<\360\275Y-\317\276\370\337\214\277\317\0250?\030*\251>\021\\\237>\247\313\331<\210\273\303=\332\222\367>\374n\333\275\t\346\235\277\323\355\226?Bdu\277E\215{?\253E\033?\265&t?\376h\031\275\217o\214\277[\263#\277?\334\204?\361\354B?_I\266>\036\314??\344\321{\277\305\347\261<\267\376\367\231\373\2556\034\032\301a\233E\303\374\033\202\205\n\2346\360\177\233\303\002\267\233\351c\036\234\311F\242\033\350E\221\033-0\352\233A\324N\233q\313\026\234\344\031\207\034\227e\234\233?\027\233\233>\210;\233\260v\200\234\220/\212\233\"\014\035\231\034x\330\033Zx/\033 k\003\034\260\266\207\0335\257\037\034\225\357X\033\233\253\216\033\362g\021\234+\317_\233\025\366v\233s\372Q\034\014\235?\232\316\026\366\033\363\316W\233\230+(\034\t\262\343\033-\374\\\033\240)=\234\232\243\201\232\314<\355\233\370$\022\234\247}\252\032m\003\220\034\337\206\213\034O\211;\034|9\207\032of\364\233tp\374\032r\247\353>\243\266\362>\221E!\277\327\271$?36\357\277\253U\322\276\220[\315\276\273&\323>\014\335\222>\326\322W?\022?n\277\033\337\003\277.\265\371>\274\275w\276\367%\374>\324\240\201\276\324\276\326>\362\227$>\016\342\322\276\223F\037\277\016F\321=\275\267\265>\001\006\207>\211\027\236>\370\213\035=\357\267\301>RT\331>`@\377=9x\016?ZQ\217\276BhM\276\2126\250>E;\235\273\306\233\237\273E\303\243;\354Mb;Y\250g;\247A\234\273\276u]\273\225\004\224\273\245\350\203\273\207\226\242\273xt2\273p$\232;\351\333\227\273\222G\216;\235\352w;\244J\222;z\372`?\327\026\005>T8\232\275\355i\373\276\005\320\233\275\353%\371>\007A%>\353*Z?\223\313\230<z\273.?\033\032,\277\317:\002\276\273\313\310?6\203l?\262@\366>\306\227\361>\366z\251>\371\n\373\2751F\232\275\331~\263\275D\217\210;\023w\227\274\275\257\370=Nz\314=}\240\271\276\377P\202>\243\216-=\232\323\231=\310@\002?\322\035\031>\241Z\222\273J\331\334\276\"\n3\035\356\r\271\235:\247\210\235U\332\200\035H\241\332\234V\017Z\035\2046\001\235\303\363\357\235<\215\023\035=f\020\035\241\262\242\034\254\344;\035|]\277\234\212\260\221\035r[:\235\370l\032\035Z\t\004?&+G\275gR\021\277\333\035\030?\301\270f\277\356\354\360\276\370\233\037\277\361J\317\275i\307\026>\226\215W?\330\206_\2773\332=\277\270p/?4\315 \277\231\254R?\360\254\351\276\234\327\312=D\347\036\275\321(\347\276\017V?>\004\247\300<+|\236>\217l\021=Gv\325\277h\340z?z\'\242>\205{-\274\242\243g\274\031\374,?}E\000\276\3744\210>\250\204\257>\261\022\202?\327Ce\275k\r\032\277\3346\221\275v\315\263>\213\306\373>\246\016\211?U\021\223\276\342.\003?^\377\344>_>\223\276\rh4\274\240V\327>\230\252\266\275\0356\211\276\214\212\255>\007\331c?\247\227g\277\367\251H\277\256\0072?\313p}\277\014\262&\277\014\337J\277\300Bg;\254:(\277G\203\210?\310\224_\277\361Z\226\277\305\346l?Afr\277\265%x?i\2122\277\243\000\355>\275\376\307\275\022H\000\276^\027\004\275\017\027\001\276\317Q\363\275\265\035\260=\363J\231?Z\340\256>F\341\033?\203w\240\276\250\225w\277y\003\323>\037\332\270\275Q#A>+\275n\277\312\367.?\024F\003>\232\207\003\276\262PT>\30392\274p\330p\277s[\253\2762\247k\275\035/\376\275j \254>g\376\026>\342s\"\277\013\216\246?\200j\376\276\005 \010\277\227$=\277fw\0239\251w\224:\2349\263:\23592:\271\004\367\271\221\254\266\272\374\306\214:t\260)\272\366\224\236\271z\320\3118\t\217\010;{\237\3059\017_\003\273&\227\301\272\222\346\243\270|\360M\271`\373 ?\260\345?>\210\364\202\277@\267\271=/\030\340\276\314u\234\276\032\245\337\276S\034\017\276JM\336=\353 \263>\264\373S\277\362-\306\276\221+W?\240$\022\277\004\'\033?\024,\354;M\343\243\233\361\360\261\232J\216a\233Q\206\021\233bs\251\231\27078\033=B?\233\306\010\252\033\212U\027\234\244\000g\034\036\324\n\234\013l\344\033\2628\254\033Nn\240\033X\220\260\233\354\222\356\033dvC?\2158\213>\272\0046\277\237\033\342\275.\254-\276\005]\023\277\315<\026>\025\"j?? e\276\310\031C?\243\230.\276O\037\340\276\227\217\201?\334%g?C\034\344>\357v1>\214N\226?V\034\225\277\232uy\277S\212\206?\263\234\247\277\303\365u\277\330\373\221\277\352B\016=\021\373C\277\223E\254?\315,q\277\317\366\220\277\364v\227?\232\003\221\277@5\237?\216m\204\277u\024\253>G\223\340\276*\353\232\2749\257F>W\272\306\276\254\204\277>\251\226\221\276OkW>K4]>\020z\010?\247\020\261\276\363\350S\276\326\275\264>v\357*\277\336\265\235>\274\277\000\277"
      }
    }
  }
}
node {
  name: "expanded_conv_project/convolution"
  op: "Conv2D"
  input: "expanded_conv_depthwise_relu/Relu6"
  input: "expanded_conv_project/kernel"
  attr {
    key: "T"
    value {
      type: DT_FLOAT
    }
  }
  attr {
    key: "data_format"
    value {
      s: "NHWC"
    }
  }
  attr {
    key: "dilations"
    value {
      list {
        i: 1
        i: 1
        i: 1
        i: 1
      }
    }
  }
  attr {
    key: "padding"
    value {
      s: "SAME"
    }
  }
  attr {
    key: "strides"
    value {
      list {
        i: 1
        i: 1
        i: 1
        i: 1
      }
    }
  }
  attr {
    key: "use_cudnn_on_gpu"
    value {
      b: true
    }
  }
}
node {
  name: "expanded_conv_project_BN/gamma"
  op: "Const"
  attr {
    key: "dtype"
    value {
      type: DT_FLOAT
    }
  }
  attr {
    key: "value"
    value {
      tensor {
        dtype: DT_FLOAT
        tensor_shape {
          dim {
            size: 16
          }
        }
        tensor_content: "\t\226\202@as\222@\tr\307@V\276\277@AYs@\257L\256@\254S\243@;l\245@\210\223\246@-\304\256@-\'\231@\305[\247@H3\256@\242\236\233@\335\276\261@$o\235@"
      }
    }
  }
}
node {
  name: "expanded_conv_project_BN/beta"
  op: "Const"
  attr {
    key: "dtype"
    value {
      type: DT_FLOAT
    }
  }
  attr {
    key: "value"
    value {
      tensor {
        dtype: DT_FLOAT
        tensor_shape {
          dim {
            size: 16
          }
        }
        tensor_content: "\332A\347>\035\322p<\025i\222\276\314Gw=x\023\014\276\021_\270\275b\315\t\275\341\016\347=\010\357\212\275\300\211\274>J\261^\2763\3306\276\231\361\033?!\314q\275Ty\330=\307\232\365\275"
      }
    }
  }
}
node {
  name: "expanded_conv_project_BN/moving_mean"
  op: "Const"
  attr {
    key: "dtype"
    value {
      type: DT_FLOAT
    }
  }
  attr {
    key: "value"
    value {
      tensor {
        dtype: DT_FLOAT
        tensor_shape {
          dim {
            size: 16
          }
        }
        tensor_content: "`+\232A\375\2259\300\213|m\301\035N\357\277\252n\377\300\036\265\326\277|\247\034@\356\300\177\276\344\347}\300\350\274xA\242(\352\300T1g\301f\277\374A\343?\311<\203\344\201@\217\3643\300"
      }
    }
  }
}
node {
  name: "expanded_conv_project_BN/moving_variance"
  op: "Const"
  attr {
    key: "dtype"
    value {
      type: DT_FLOAT
    }
  }
  attr {
    key: "value"
    value {
      tensor {
        dtype: DT_FLOAT
        tensor_shape {
          dim {
            size: 16
          }
        }
        tensor_content: "\217P\260A\206\373\320A\261\223\212B\237%\251B\035\260\312B\362\307\363Ah\216HBQV\275A\236\004\303A\2717\210B\314G\245B\035\033iB\016*\004B\345o\226B\365\203\227B\032\004\334A"
      }
    }
  }
}
node {
  name: "expanded_conv_project_BN/FusedBatchNorm_1"
  op: "FusedBatchNorm"
  input: "expanded_conv_project/convolution"
  input: "expanded_conv_project_BN/gamma"
  input: "expanded_conv_project_BN/beta"
  input: "expanded_conv_project_BN/moving_mean"
  input: "expanded_conv_project_BN/moving_variance"
  attr {
    key: "T"
    value {
      type: DT_FLOAT
    }
  }
  attr {
    key: "data_format"
    value {
      s: "NHWC"
    }
  }
  attr {
    key: "epsilon"
    value {
      f: 0.0010000000475
    }
  }
  attr {
    key: "is_training"
    value {
      b: false
    }
  }
}
node {
  name: "block_1_expand/kernel"
  op: "Const"
  attr {
    key: "dtype"
    value {
      type: DT_FLOAT
    }
  }
  attr {
    key: "value"
    value {
      tensor {
        dtype: DT_FLOAT
        tensor_shape {
          dim {
            size: 1
          }
          dim {
            size: 1
          }
          dim {
            size: 16
          }
          dim {
            size: 96
          }
        }
        tensor_content: "\225K>>\355\364\014=\240T!\277\260RU\276F\343\316>\033`\240>$=\005\276\350\t\242\275\352\213N\276\250\312\300>\337\2216?\230OF\276\373|1?\336n\220>~\335\265\276\001t\224=\276\025\330\276\22043\277\036g\354<\246\023\002\277\344$\343\276)\224\014\276R8\310\275\216\303\304>\250{i>R\305\033\276\344\225\006\277\325V\205\277y\364\035\276\317\342\263\274M\377s?A\000e=B\004\272\276\236\357G?\344\302\321>\313\3072?DN\030>&5\242\276\252)\253\276\305\\\274\276\302\331$>\233U\337=\215\343T>\335 \r\275\n\324[?%\371O\277\200\206\360>_\365g\275u\326J?\177n\276\276\265V\370\276N?\024?\306\030\353=\367Q\375\276<\000>?h\254[\276+X7?\370p\014\276\t\001\260\276\205\226I>\227\271\244>i\007\377>\305\252\253>\375\264\022?\n\321I?\273\302q?0\2366?\201\014\232\275m\233P\276\3175/?\020\014\375\275\347S\337\275\326\3710>\022Y\301\273\300\311\030?A2G\276\343^-\275e\327\235\277\333Gy\277#\276L=\204\216T\277\212\353\206\275\032\360\001\2763\334z=xR\001?k\263\202\276VI\273>\326g1\276\211\255\253>\273\276`=@\2261?K0\207=,T\246=\371OX\2751`\375>2$?\276\0337L?e\215\254\277\373Ut\277w\006\010\276S\230\300\276\306\177>\277A\271y\277\206\027\215\277\355ue\277\230\352a\277\225E\302\276j\235\211?\373I\354\276\335:\002>B\246A\277\344D\201?6s}\277@\2331>\274h\020?l\270\300\276\267k\017\277\375\026\335\276\022\311\363>G\014\333>\351\260U\276*z2>\030vR\277\352\251d\277E+/?\007S\350>\361\365u\275g\206\036= \311\005\277\215\200\225\275\343Z\255>i\245\222\276\310uF=\251Ud\277~\3515?\035:\201?-\2213>E\372\202?\031\353\224\277\373\233\306>\263z\365\276\274u\223\276X~\316<*\354\024\275\340Q\030?p\241Z\277\353P\005\277\257\367\343\276\023\374\340>j\357\n>rm^\276\3606\267\276(@\t\275HG+?\253\005\005?\rk\341>-\344\251?p\335\007?DFw>\355Va>DQc\277{\266\345\276\343\227\005\277[\241/?\301\"o\277Ql\245\276\2562V?E#\216>\371\366{?\2173\304>\371\346\357>\210S\211\2773e`\277:z\213=#\001%\277\344\003\240>\363r\277\276NV\216=XI\226?\260\003\037?m\010\006?\332J\275\276S2\302>|e\246\274\266\325J?X\004+\276\233&\301\277GM\362>m\355\\?\037cn=pb\031\276RO\323>\033\341=\275M.\020?J\031\001?\t\353\353\275\273cT\277\317\311-\2779\210\371>a\253+>Z\2554={\250\325>\007\017\"\277\245\010\260>5^\013\277\236\354\232\276\272\334\345>\261\007\275\276p\353t?\351\344p\277\274\303\241\276k\035\343>UfP?\022q\376=\347e7\275\304\362\006\277C\025\017>\301\356\020>zS1?\354\321m\277\331\273,\277\307\223\215\276\335\217\272\276\021\227E\277\230\304\003\276\002\2314\277\221\205o?\005\234#\277\035%\376\276\232@\014?nl\236=\221S\335\276\222/[>?\347\337\276\202o\330\275\001\356\200\277\362\027+?S\036(\274\274\356\026?gH*=S\264T\277\320\210\030?\321\\\341>y%2\277lX\035\277.\256<>V\254\000\277\026\273_\277\010\0321\277R]H\276-\256\346=\321`\240\276\243\212\027\277?1\214\276\004\001\200>\342\260\033>\356\3531\277\r\021\005\277a\024\014\277\231$\037\275\325\326~\277\255!\351\276\337\325$=\177|\017\275R\261E?\367\223\206?\237\232\315\276\337\271\032?\301\310\023?\221\236\r?30a?\017\231\025\276\030\210C?\201\212\r>\3005\203\276\322\262\273=\320\203\034\277\002\217\253>\265\261,\2768\001\304>9\207n\276\362\313\177>\307\315\324\276\324M\336\276\330\021\351\276\331\367b?\275\"\217>\216$+>\207T\203>\370CG\277\304\227\024\277\362\327M>\356\316\033?\033K\217\277C\2744\277\327\364\377\276\211\037[\277)\215=\277Jb2?\202,)=\262\273E?\223-r?\231\3221\277\016i\372>}iU\277*\261t\274\322\356Y?\377\375\325\275%\315s\276\342\332e\277\t\337\013?\325\270\023?\036\213\026\277\005k\351=\273Lk\277\037I\030\277\210\034_?\327\323(?l+C\277\3003\310=\360\3523?JD8\277\245\315\000=\255[`?\242\251\016>6\205A\277\350wO?C\254\337>\371^_\277\215rW?J\032\205\275\263\325E?\003\317\245=\245\272B\277\374\214\251\276Fy\032\276\201ec?<88\277\277\\\325\276?\350N?i\036\001?K\244\236\275\270\206\262>5,\317\275\237T:?%\272\340>\273\267|\275\367\246o?\014\267\213?b+O?\251-\220\276emv>\350\017F\277\033\257\222?H2J?\331e\247>\251\357\245\276\347en?\352\223\031?\240R\247>ijl?2\337\336>\223\263*?\346K\002\277\3334u\276\253\2113?\013W\272>\205\321!\274Z\205D?\232\001\203\276A\213?>\257\355\222=\244J6?zK\205\276\240\233\352>7\272\t\277\273+r\276^\036\274>\0177\000?\275q\200?S[\261>\270\376\262\276\246\003\036\277\001\337\217>\376\234(\277\260\347\270?&\2254?\021\373B\275\017\r\034\277\347\"\361>\306nV?hLj?\251=2?RS7?\302\2669\277x\231\311\274\375\032C\277_\230\213\277\344\350S?\033l\357\276x;H?\257\316D\276\371v\212\277\216l\253=@#1?V\262\016?-q\322\276\013\260?\2777+\014?\316@\344<u\027\006?\243\024x?\371\341\245\276\030\212\201\277$\035\373>\017b\020>\273\002)\276p\263\223=\354\330I\277\260;d\277\001\322\314\276\203n4?#[]\277\357-\037\276+I\025?\262\203q\277\316\017\360<\250\035\215\276\t\307\\>\231\256Z?\313\232\223\276\2215\207>\330\000\232\277N=Y?$\337\035? \036F\277\250\036d\277\023\373W\277f\323c\277\271c\221>\020@t\277\222\t\376\276\323\024\004=\301\366\216\277\270W\227\277g\307\222\277mp\204\276\223\353+\277\020Dn?S@k\277W,L\277}\320z\276\002\031??1\225V\277o\201\270\276\202\365`;\200{j\277m\200\004\277\362^\216\277\253\234\002?\207\"\330>\223\r\243\275\257-<>\357 \235>\337T{=\364\320O>\337\253\211\276\252G\235\275\200S\357\277\242\016\240>\205\327\214\277\360\007O?t\271\275\274\364\356\022\277W7\025\277^\212|\277\017\n\366\276\235X\304>\n\2011?\205\026\211\277{\275\247\276\306iG?U/\340>>+\023>\325\231Y\277>\000\227?\211\n$?\036\"\016?\371\036\350>\035<;?\026+.\277#\207\306>}Y\021\277\223\262@\277\222\210\304>\256\345!\277\330\320\023?V\330\214?k\234\247\275\320\"B\276\'\350\262>v\224\023?\230:\026=\2219\200\276\201Q\002\277Bl\203\277\037\3539?\340W\226?`\177\244\271.\222P\276\000}\264>\260\312l>\004\315p\276\3027\307\275Y{1\277\200\013&\277\226\253\003\277\252\355\001?\326g\003\273\307\331->\221\003\303>\273\275\264\276\2511\016=X\364\224>\243\221\227\277 \031p?Q\300:\277UL}\275\t\024x\277\361\327\030?\365\206\320\275\315\372\005\277\331\270S=\272L\247?\362\021\313\276\2471\017?\206T*\277Z\325\250=\322\304\345\274\212D\025\277\346M\034\277*\032\013\277r\301<:\241\n!\277\021\'\037?t/\203\277\251F\026\277\367\240\211\276\320>b?\250\023\247\276c\211\221\275\362\373\374\274\032x\206\277uW\216>\203\217?\277\366\245\370>\373\246\222>\307DG<\037VO=\362\203F\276\320\254\311>`\316\025\276G\274\265\275\332\357\002>\260\233\331\276Qs\205=\320Va\277\355U:\275\236\306`\276S_R\277\217\024=\277\027\333\277\276\322]\026\277\254\340\r\276mN\304>\017S\\?\001*\336\276\230\3155?yW+?\200\321\232<\220R\023\277\002\335\206?\213\260)?\255\361&?B\343\242>:\372\220?\036\205\010\277\033\244\267\275\302\217I\277\252jS\277`\342%?\356\336\272\276\030\004P?\2036\014?SJK\277D\026\370\275e\364K?]]\217>\317\222\334\276\347a\362\276\371\255\326>\331i\263\276@F\367>\253\333\216?\347\004\252\276\372f/\277\"ZV?\232Jr>\26447\276!=\322>\362.;\2771\036D\277\t\234\203=\274\225\n?\232\244\374\276l\3346\276f\366\032\275r\315M\277\362\013!>\342}\211\275\312[\323\276=\373O?\nhV\277P\336\237>\022TC\277_5#?\336\327\014?\363\322\r\277\313\014\277\275\022\377\226>\372X!\277\244\3574?#zg\277\205\035\301\276\025\245\002=n\275[\277\021=\202\277\'\006\177\277\3579C>#\277\t\277\247\005\230?\231\375\214\277\014wO\277w.\277\276!=\204?\320\r\223\277\272\245\252\275j\253\265\276\321\233^\277\312k\017\277i\004N\277D\310\310>g\"\347>G\370Z\276X\242\345\276\336\2317\276\253#\377\276X&R>\023\347\033\275_\222a\276\364_\n\277\364|\365=\330+6\2770r^>\221\230\n>Fn\023\277\304zB\277R8\\\277\355\217\002\277T4-=\315\022[?\261\312\362<4\0006>W_#\276\306yj>\363\232\032\277f\331Y>\037\323\021\277\316\366\"\277u\307\334\275\241 \214\276\367zH\2769@\023\2759(/=4\304\200>\035\031\'<\244\034\036\275\035\226}=\335\375w\276\270m?=B\374\305>\035\274->k\311%\276UV\236\274\327\253.\277\361\277\355<\337\341\217?\270\364\216\277-g$\277<\373\205\277\020\005\301\276\240\\\024?o\025\207?\317\216t\277h9)\277@\266.?V\265t?\"\367\326>\376,\016?;\226\330\276\273\363s=\214O;>B\367B\275\362\335\010?T`\205>4KW\277\0255\212\276\212]\002\277\260\353=?\026\240\247=2\000r=O\323.\276\371\253\210>\037\201\032?}\363B?c\307\003?OF\001?y\331\203\2772\027\025\277\216\251\225>\322r\201\276d\201\006>\224\010g?\333\317\035?\214@5?\245\356J?\001\205\263>\365\217\211>\356\244Q\275\251`\205?\331\r\205\277 3\034?\001\237\222>O\376\206\277DY1?4\\[?\nG5?^\261k\276\351\224\373=\356\376g\277\010hH\277\303-\021\277$\025\240\277\\\354\204=\331\2630?\357v\301\276\215y\000=\006\205\310\2767+\213>\013\365\363\276\215\314\026?gB\021?\201V\007\276\025\225\001\276\330\276\241\276\3125Y?\017\333\'\276\322`\021\274\t0\021\277<9z\277\030\274\347\276y\337x\275v<y\276\373\235D\277\325\376\310\276\215vw=\353\371\013\277\365o.\277j`S>H-\206?\014\017\235\276B\246\374\276 \340i\277\177\312q?W[J\277n\000A>5B\256>\276#\311\276W\335*\277~\027\017\277>9\360\275\303@\216=\256\261\366>y\3339\277\t\244\236\277\236:\032?>\026\323>\006\313\031?\000\343\300\275\251h\240=\353\217\226\2760\300\351\274r\251$\277u\006\030\277;`B=\006Tj\277%\240\326>\206\037I?\324\246\031>\026@\301>\353\355\244\277\316\332\243>\216K\014\277\265\250g\276k_\237<\350\023\205>\244\313C>\230\\O\277\316\306\373>q\236`\275Z\220\234>ZP\037?\007\313F\276d)\355>e\350g\276\2227\346>P\277M?\327\344\010>\337\206\033?\2163d>D\010T\275\022H\r\276G\252\260>\345K\323\276\262,\006\277];\310=&[R\276,hp\274\"\031\244>\217\370\324>mN\237>\254\2534?t\333\253\275\244\247\340\276\270\300\001\2775\313v?\240\022\337>&\037]\275%yt?-\345\224\275A\332\237?\255|&?c\211\314>\253\177 \276p\323\235\276U\345-\276`\022\025\277\305\265?\277+zq\277mvX?\241\355\203?Ar\254>\342\362\373=xMI>\363\031\007?n\'\235\276\267\331\025\277\324\307\376\275\027\241E?\266\343\t;\272\364\344\276\363=\312\276\030\366\035\277s\300\006\277\006y>?\201\225\234\276\003\2129?\353\241&?(\360\r\277\3523\326>\215\373b\277D\343\201>\n\034\037?\351\250\260\276\0042:\276\020=\003\276\276&d<?\300\014?m\331\213>\243\245\013\277I\253;\277\3071\343\274\350\371\346=\326\256\255>\300\312\000?\330\235_=\245\223A\276\242X\267>\236\255\377\2763\0263?\206(\314>\276\226\361\276<\336\244>\005\312\267=\370U\276\276\333\346\212>%\305\233>\014\311E\276\235\357\347\274H-\t\277R\355\017\276\016q7\276%Hb?\037\265\t\277\row?\271\301r?\300\350J?*\211\343<=\206z?\0164=\276\233:3?\306\214\350=>\376k\276.R\361>-6)?\316\023\214?\311\322\346>q:\r?8g\321>\371R\206?DO[?\371\020\363\275\014\347\023>]D\200?\033\036\024>\342V\222\276\363R\212<\341\310`>\026\035h?\022j\240\276\t\247/\276{\370n\277\372z\027\277\367_\013\275\\\247k\277eS\370\276\177V\'>\234D\014\277\251\0324?\203\010_\276\327\035\321>?\202\017\277\201\241\315>YE\346>\233\214O?I\310*?\022\030\214?\202\220\227>\r\327\377\276k\226\240\275\311\230\366\276\270\315|?\257h,?\201\355\371>\016\235\361\276g_\210=\303+<?+U3?{/\255>\256<\003?\262/!\277\256\016\271\276\037\1775\277D-I\277\021\016N?\"\373\305\276\032[i?\373:9\277\026Cr\277\342-\243>4\226\201?\2725\\?\315y\335\276\371\347;\277\241\306\222=N\001\002?\340\014w?\\=\237\275{\223\217\276j$\036\277\263\255\216\275\317\025\264=\006Q\231\275\010we\276\177\232B>\267\217J\277\242\023\222\276\npI?\331c]\277\254\207\264\276\201\177\t?.\233e\277\342\r)>\251u\211\274\304\006(?-\272\032?\331\227\244\275\370\205B>\363\234\201\277\301\031B?O}s\276j\3618\277\020\004\026\277\215$a\277:.\"\277\360\306\000><a\032\277?\303\322\276X\356\350=\026\236Y\277+\004\242\277x\003c\277\231\3237\276k\231\000\277\021n->\331\210A\277\271\365*\277\020\016\202\276\3537_>\314\017S\277\346~\265\276\245*\003;\025`\314\276\345\371\254\276\201\322D\277(0\375>\277K\272\275v\231\344>Y\037\244>\333S\240=\363\331\203>;\321\024>0\256\263\276OV\022>(\215/\277\346l^>\3622\021\277\335\265\021?\340\346\222\276(\253\022\277\347\270\014\277\020\334D\277n\222z\277\233\273+\276&\261\232>\207\023Q\277\243g(\277:t2?\037\001b?p\214\237:\036\205[\277\347<\201?\317\243P?\023_t?\243n\033?x\304,?`C@\277A\274\010>\033\265\233\277\307\337r\277/\371\022?o\311\274\276c\306`?\327\236\n?\244\006\022\276\327+#>\362\265\006?\301o\325>8\332\323\275\"\3230\277\261F\002\276\352\022\233\276\'N\260>\270\347n?\t\217.\275\003\030\027\277\022y7<\2450@>o\177\203=\355\2208\276\305@\202>\016\232S\277\346+\234\276\026fw?\224\006\376\275\303\343Y=U\233\325>\231sa>\342\331^\276\311M\307\275\236\247\032\277\322\2678?\347T\245=<\354\264>\367\325\\\277\031\177\237?lH\264\275g\373\214\277\373\352Z\277\340\347X?\260\002F\277\2001M\276\220t1\277y\373m\276\020\2505\273\027\016\027\277\016/*\277^O4\277?r\376\275\23602\277\306\030\345>\0001Y\277\221\203\202\277)\317|\275\265\314\336\276\240o)\277\310\255\366<6G\261>\204vV\277\303\236\263>\250h%\277\227\275\351>z\210\307>\033\335\025?G5\r?\027\375\003?\305\t2?\224\032a={j\353=Z\266]>\2159$\277\350\030\035?\345=\321\276\010l\021?\177\332X\276_W\031\277P\361M\277|\347\261\276\210\314\036\276L>\260\276C\277\307>\367\031 ?\200g\217>\t\221\365>\254o\323\275ih5\277\"\372P?8Jz?\247\240\300>\021\345\006>\024Q\226>\2133\273\274\303\334\024?\217\t\267\276`\\\n?\351\325{<1\000\265=g\ta=\343\274i>\006\023Q\277\207\314\n\276Ij\221\276\344\361\202\276\305\205\263=`\262a\275=\234\312>\035\2757?40\300>t\010\310>\300\350\254=\2431\255=\335\204\264\276\034\343\207?\332\227`?\310\211U\276\205\321\205?K\352n\277\224d ?\332\036\201>m\271\220=*\026\024\274\240\022\004\275i\344`=[\300n\275F\350\311>\202\315@?\024&\207?\226!\030\277\246A<\277l\256\205>\020Q\377>\234\362i=\314\216\214\276e\225\372>\375\t\250<ur\210\277>Ug?\2525b?\344\214\353>\335\354S\276\352I\314\276\016|\021\276\300K\034\273\361\343\004\275\307\003\'?\rTR\276\211\276B?s\265P?2\255\001??c\006\277\030\310\256?e\036\217>\363\214P\276\203\333\026\276~\336\016\277[.5\277Z\3337>w\017\272;\020\367\206?\314\232\245\277+\264\231\277=\351\232=*\202\227\277\221\271\231;\300\0179\274\210F\302\276\237.\010?\306\027?\2763\214u>\265\341)\276a\260]?\033\341H\276d\240\032?QL\024\276m\225\263\276\242\2355\277G\356 \275\000\311c\277\226\354\345>|d\360>\333 \255>\302<1\277H`?\277\263\\i?G\031\364>\351\220\301\276t\376\034?,\304\n?;\035,\277;\351\243\276\272\252T\277bPn\276s\203g?\202w\276>\266\016o?>\335*\274\376^\271\276\252\320\032>?\210\253>\335\202Q>\226l\235>,\337\317\276\025\227\376=\263ho\277\272\303\336>\237\356\227\276VX\007\276\030\362w\276\372w3?\207\033\003\276\0301\344\2755W7?\312t\311\275\010\276L\277\003\370\256\276\357\002\007?\370\256Q>\3137!>O\201\352>F\363\">\2224\303\2752+{\276 \215\276\276B\200\'?v\004\020<\320m\254\274\367\205^\277#;9?3\246@>\304\2779\2773~R\276}b^?H>\n\277\346\355,\276\025\201\t\277\303\352x>w1\002=\262\302;\275qb\274\276\235]o=\226~\207?\021\334\345\276\341\345\203>\003#~\277\311\027\033\277!d\222=\260\215\252\275\021:\226\276zE\213=\n\234\345>\026\037\273\275\267\2579?\n\364\302\275\205l2=Z\357O?\315\201\207\277\031\031O\277h\263\270>$\321\276\277\316\233>\275\200\031\237\276\267\223\177=y%\360\276\326\316 >\005&{\276U\212\206>\241k\321?\302\270E>h\2740\277\211\\*\275=y\351\275\374\003)?\200\333\367>U\265\006?.I\374>r\247!\277\025\345C\277\367\010\352\275\227\027P>\251\177\t\275\244\232\030\277\305S\'\277\212d9\277\3117B\277\023\276k?d\355Y\276\365xC?@\202W?\n\2737\277&n\022?\230\202\213\277rd{?\271x=?/\360\336\275\250\211\371\276\203\\-\277\rt\366>\316#(?\024\277\366\276\266}\272\276\256fd\277\202d\373=\327\030\234>\030#b?\352\200\271\275D\232\326=\313\365\024>\230\323S>\203\214\254=\364H@?\264\315\336=IDN\277\333>=?\201?\345=le\022\277\325,b?\263\316\233\275\255\030\023?)\360q\277\r\032\027\277\275&\324>\215\013\237\276\375\260\301?H\377D\277\247\227\235\276\371\332Z?rH\'?\340]\227?OJZ?T\013\300>ahV?B\372\313>\223|\021\275\033\010f?Y\350\201?Fi=?\005\246\252>\241\212\010?b\254r\276F\362k?Y\222S?\364\376\026>\177\227p>\277\202v?\"\026\277>\2639!>\217~l>\000\211\002>\033Nu?\257#!\277I\265\"\276G\222\334\276\203J\246\276R\000T\276\3476\014\277Bd\227\276[\327\351=\035\317\031>v\'D?\351c\277\276S#m?\003 \034\277\355R\263>p\257\010?\352\002!?\242\301k?\230\205q>\002?\354\276\345\214b\277\020\210\223?\357y\000\277{ue>\327\307\002?\r\317\302\276>\333b\277\315\315q?\251_$>\277V\346>J\335B>\217!\221>:c7\277\347\357:>\360zB\276\350E}\277\354\376\226>\"\004}\276\201\312\355>,\212v?3\316\204\276!\224\032\275\325m\255=R\344\262=\327M\305\275<C\002>\273`\255\276`\327\026\277@k/?\271j\247?\375c\210>\326\214\242\276$\316\025?\273$m?Ho\337=$s\027?\r\332\325\2766n/\277\362\331)>R\002,?}\025\223>\276[\356=\016BQ>\365\226\217\276=\234\255\276A\023-?\227\257\223\277\324VW?*72\275\031\023\022=\303\204+\277\217\363\261\276\262?\236\277\\]\201\277]M\242\275\220\362\231?\316\302!\277*\254j?\3233\357\2766\221K?\325\211\240?\244\254\365\276\273\307\202\276\360\231\315\276S\030\023>\277\314\204\277\205\372\273>\207;`\277\037\017\202\277p\032\3609Zp\001?\3601\026\277\371h->N\331\337>?\211N\277\374\360\364>x\210\021\277\343\327\364=\365\227\023>\022\0175\276\006\210\322\276\216\255\201?Vw3\277\374\362+=\370r\307>5\364\025?\n\035\314\276 \366\273>\366Q\033\27713(>\370\277\345>\254\303\327\276\207\034\013\277\327\205\304=\003&N>\017\221\252\277\314\2371>\0320v?"
      }
    }
  }
}
node {
  name: "block_1_expand/convolution"
  op: "Conv2D"
  input: "expanded_conv_project_BN/FusedBatchNorm_1"
  input: "block_1_expand/kernel"
  attr {
    key: "T"
    value {
      type: DT_FLOAT
    }
  }
  attr {
    key: "data_format"
    value {
      s: "NHWC"
    }
  }
  attr {
    key: "dilations"
    value {
      list {
        i: 1
        i: 1
        i: 1
        i: 1
      }
    }
  }
  attr {
    key: "padding"
    value {
      s: "SAME"
    }
  }
  attr {
    key: "strides"
    value {
      list {
        i: 1
        i: 1
        i: 1
        i: 1
      }
    }
  }
  attr {
    key: "use_cudnn_on_gpu"
    value {
      b: true
    }
  }
}
node {
  name: "block_1_expand_BN/gamma"
  op: "Const"
  attr {
    key: "dtype"
    value {
      type: DT_FLOAT
    }
  }
  attr {
    key: "value"
    value {
      tensor {
        dtype: DT_FLOAT
        tensor_shape {
          dim {
            size: 96
          }
        }
        tensor_content: "\251\274\317?1\000\271?\316:\016@\371\255\027@XD\021@\270\374\277?0\036\267?\255[\252?C\312\227?\321m\246?\271V\227?\203\343F?z-\004@\271\022\262?\266\'s?Z\001\234?\013\321\303?*\225\255?\354D\026@v:\265@C\366\330?\025\365\273?\2476\003A\350\\\007@P\357\237?33\227?\334\354\307?\265\005\253?MO\217?\253\231\037A\216\375\331?mg\342?p\242\237@\377\256\305?t\346\247?7P\321?\346dx@\277\005\310?\316y\346@\301\223\320@\320\242\237@q%:@\220Bn?**\320?\244G\254?$m9@\'\021\252?\243\311\224@>\345\373?\326*\353?EJ\234?\315X\026@\3346\374?\270=\274?N\327\310?9,\300?\333\224\266?\336h\"@P\240\"@\330\314(@-\\\343?>W\237@\030T\025@\013\027)@\362\'\354?1|\351?\341\r\274?^\0169@<\\\315?\356?\360?:R\277@\247;\257?/n\225?\223\235\213?0b\267@3\344I?\243\244\264?\3730\031@\036H\304?\346\347\026A\227&\367?\230x\022?F\307\034A\250\024\336@\317\031\237?\3458\246@\310T\273@\023\214\241@\316yh?0\364\262?\311r\256?U\310\017@\306\240[@\003\331\301?\204\200\201@\273(\251?"
      }
    }
  }
}
node {
  name: "block_1_expand_BN/beta"
  op: "Const"
  attr {
    key: "dtype"
    value {
      type: DT_FLOAT
    }
  }
  attr {
    key: "value"
    value {
      tensor {
        dtype: DT_FLOAT
        tensor_shape {
          dim {
            size: 96
          }
        }
        tensor_content: "\274\323\272?nZ\227>\010bW>\0052\032@:\357/>\326=\266?\233@_>\2748\220?\361\232,@\275\240\274>#\303 @\353B\365?\225\354\342>>\000\031@Z\220\317?X\016\220>\322\021\251>ox\027@\002@8?M\304\033\277\352+\030>\0338\351<\312\321\231?\017M\223?\014\343\352?%\204\025@\374\274\273\277\016\253+?6;I@\177\337\032?)@\256?\355\377\003@\306\267\211\277\251\020\223@\343i\030@7\374\346?_\010\005@WD-@\034\355\337>\376\026\344\276K\205.\276\227\342\'?\233\271\177@%H(>/\367\340?\260c\r?B\240X\276\200\215U@\372\020n?E\013\252>\374Y\374?\007x\245>\'\361\025?\223Z\365?\201y\214>g\252\271?\307\253\357?q\322\025>6\013\035@IE\355>TL!?\216\223\305\276\361G_@F\203\014@\373\306\223?9\217\215>\253\206\013@\n\000\017>c\034\t@\225\203\022>\353k\023?\r\272\274?\307i\007@l\2441@}N\265<\275\244\263?\226\016\376<\305\311\017@wN\276?JO\356>\031\223\005@\242~\256>\317\000\n?|[O?\264\222\034@\006\267\327?\026\270>>\t\263\227>\\`\316?l\335\374?\312J\257\2777\323\260>\312\327\356>\261X\'@\017\304\266?&\243\026@"
      }
    }
  }
}
node {
  name: "block_1_expand_BN/moving_mean"
  op: "Const"
  attr {
    key: "dtype"
    value {
      type: DT_FLOAT
    }
  }
  attr {
    key: "value"
    value {
      tensor {
        dtype: DT_FLOAT
        tensor_shape {
          dim {
            size: 96
          }
        }
        tensor_content: "\374\3507\300S8\351@\260\311\262@2\022\202\277\232\"\225\300\320\267\356@\235\265\300@\376\251\232@\350Y\244@\007\223\320@U\270\242\300[5\201\277\326w\230\300\025C\303\300\350i\300@h\265\207\300\2321\377@\217\207n>\007J\240\300\031\214F?9\354\214@\345\\\207@\305C\341\277\264\330e\300:\250h?\223\251\244\277\213\035\342@\236\016\222@\036\213$\300b\333\247\300k\247~@\354-\326?\364\353d\277\355s\017@\233\254\330\277<u\242\300\'.\336\277O(\326@\022\312C\300\r\211\376\277\311\364A@,E\231\300(\205\273?\200/W\277\317\022\321\276\273.\260@\223x\332\277\271u\227?=\213\362\300\013\323\301@<M$\277\n$\274\300\001\017x\300\220\237\235?v\031\202\300?\347\016@`a\237\300\264i\315\277\207\207\371>\242\204\265\300nJ\361\300\250\020\273\300Hm\212?\376\213\227\300P\273\221@\337\367\316\300\373\317\251\300\332e\022\300\014\344m@\3274\260\300\316\211\004\300\013\235g\275p\267\275\300\333I\004\277\236\262\260\300\274s\210@\246>\216@\032k\371\277\364/y\277\347\033\304?\026\324\016\300\305\036r?T@\022\300\377\033\"\276\244\363\250\300\237G\035@\210~\217\300\277l=@\025F\305?\265\267A\300\274yO\300\220X\255\3006\214\222\300&\361\220\277:g\207@\027\271\262<"
      }
    }
  }
}
node {
  name: "block_1_expand_BN/moving_variance"
  op: "Const"
  attr {
    key: "dtype"
    value {
      type: DT_FLOAT
    }
  }
  attr {
    key: "value"
    value {
      tensor {
        dtype: DT_FLOAT
        tensor_shape {
          dim {
            size: 96
          }
        }
        tensor_content: "\364\235\326C\372,\377D\302\216\301D\306\250\351A\320P\276D\260f\233D\237\235\261D!\310cDoe\204D\360\236\305D\343~\336Dn\206\331B\341X\330Da\235\326D\376\312\317DcmAD+\2141E\372%\225B}\206\220D\010i\003C\264\223\213Dn\253EDY0\024C\227\031qD\360\222\212B\032\265\252B\030w\003E\316\tBD\016\237\277C\027\371\203DW\212rC\321c\321BMT\024B\307\204\342B=\247\376B\"\"\352D*\023{C\203\230\352D\334\026\354C\317\020FC\356\324\327C\224\201\177Dj\217\037C\355,\230Cu\362GC@<\323D\377R\311B`|xB\035MVE\253Z\347D\217\016\375A\245}\005E\271UXD\214\346RCO\037\300DJ\325\023C\213G\331D\234\3305C/\240\001C\252\243\263D\027\367)E+N\333D\214\2277BVIbD\257j\260C\020\0065E\351m\354D\325!\"C\351\352\261C-\247\347DH\226*C\277^_B\365\251uD\260A\330Bu\347\333D\366\\PD\274\023\003D\364\277\226C\250\342jCL\257\241BPsxC\350\274\205B\304\220\233C\033\207\212B>\005\350D\270\304\244CK\226\212D\304\227\017D\305\264\233B(\270\313C\373\032\224D\241\215\256D\350\316tD\001\341\366Bc\"0D(\343\236B"
      }
    }
  }
}
node {
  name: "block_1_expand_BN/FusedBatchNorm_1"
  op: "FusedBatchNorm"
  input: "block_1_expand/convolution"
  input: "block_1_expand_BN/gamma"
  input: "block_1_expand_BN/beta"
  input: "block_1_expand_BN/moving_mean"
  input: "block_1_expand_BN/moving_variance"
  attr {
    key: "T"
    value {
      type: DT_FLOAT
    }
  }
  attr {
    key: "data_format"
    value {
      s: "NHWC"
    }
  }
  attr {
    key: "epsilon"
    value {
      f: 0.0010000000475
    }
  }
  attr {
    key: "is_training"
    value {
      b: false
    }
  }
}
node {
  name: "block_1_expand_relu/Relu6"
  op: "Relu6"
  input: "block_1_expand_BN/FusedBatchNorm_1"
  attr {
    key: "T"
    value {
      type: DT_FLOAT
    }
  }
}
node {
  name: "block_1_pad/Pad/paddings"
  op: "Const"
  attr {
    key: "dtype"
    value {
      type: DT_INT32
    }
  }
  attr {
    key: "value"
    value {
      tensor {
        dtype: DT_INT32
        tensor_shape {
          dim {
            size: 4
          }
          dim {
            size: 2
          }
        }
        tensor_content: "\000\000\000\000\000\000\000\000\000\000\000\000\001\000\000\000\000\000\000\000\001\000\000\000\000\000\000\000\000\000\000\000"
      }
    }
  }
}
node {
  name: "block_1_pad/Pad"
  op: "Pad"
  input: "block_1_expand_relu/Relu6"
  input: "block_1_pad/Pad/paddings"
  attr {
    key: "T"
    value {
      type: DT_FLOAT
    }
  }
  attr {
    key: "Tpaddings"
    value {
      type: DT_INT32
    }
  }
}
node {
  name: "block_1_depthwise/depthwise_kernel"
  op: "Const"
  attr {
    key: "dtype"
    value {
      type: DT_FLOAT
    }
  }
  attr {
    key: "value"
    value {
      tensor {
        dtype: DT_FLOAT
        tensor_shape {
          dim {
            size: 3
          }
          dim {
            size: 3
          }
          dim {
            size: 96
          }
          dim {
            size: 1
          }
        }
        tensor_content: "\001\361\007\300\000\331\014@\311\266\220?\250M\321?\235@\274?\023B\323?{\212\265?\301\342\036?g\362\223?\225U\310?;LI>!,m\277 \372\312?4\323\306\276\205\342\301?\212\251\026\277\330\241\006@h\256\306?B\207\236\277t\036\260\274-M\250?\375`u?\332\255\330\277\350\317\215\277\r\364\315\276\215\362\022@7\007\353>.S\365\277d\321\010?D\231n\277\026\010\020@\255\373A?\030\307\340\276(\0367?P\007\305>\335\352\263>sb\337\277\233L\272?\0141\251\277;\224\207\2771\3474\276\364\331p\277\245\204|>]\230\030@\215\\\357>]\346\r\300\231\261\330?\336\255F\277\271\006\332\277\215\352\321>\372\007\230\277p\265\320?\222#j?(\r\367\277G>\250?bzb\276\367#\313\277Kp\034\277\327\350a?]\364\211\277tr\216\277o\026\226\277jpL\277\tV\214\277\370\006{\277\261\300\027@\002R\374?\367\243\030\277kv3?Kh\325?*\245\304\277\302\273\014@\017`s?,\330\225?<)\230\277\017\2019?*\320\304?\033\261\253\275w\016\006\300\230|\211\277\215D\223\277h\351\255\277\265\330\222\277tz\303\277l\307\323\277\315\305\236\2777\005\206\277\2762\027\276\222D&?8\337\235?;l\261?\373v(\277 @\014\300DF\250>\020\031\216\277\370m\014?JV\275\276\311\031\013@\323\343\371?\225\330S\277\267z\027@\\7\025\300\220\251&@\037qV?\035\264\324?u\250\364?\360\345\016?\246H(\277\200\350\252?F\305\373?\031\363\304?}x\312\277\242y\001@\201\252\n\300\345\335\210\277\353\307\252\2765\377\014@\212\375\032@\016\230\320\277\257\356\261\277}\215\373\277T\332\335\277\026`\355?\232\177T\276e\035L?\250\313\240\277\204\215\306\277\226\325\352?\217\371\220\277\216\030\032\300\212\322(?\260b\032@\022\317N>\347\235\006@n\252\342\277\310~\265\277\210\357E\277\304(\210\277\333\3309?\200\024V@\375\231@\277\236\354\017\300z\347\352?\225=\263\277{\272\034\300}\326!@\021~7\300\t*\372?\315?\245?\334(\370?\270\030\032@k\244)\277\2056\270?\265\2378\277g\267\n\300\320\357\355\277?\006\245\277\234\222\243\277\004N\304?\264\336\361\277\255,)@t1\014@Tw\007@;2\224\2773\337\200?\247\312\035@\310\353*\277\264\364\232?\253\332F\300%\0058\300\370R\260\277q\211\201\277\251\310)@`T\362\277\253\222\257?\363\303\330\277\265\220\300?\317\263\331\277\246v\264\277\326\016\322\277\010\327\022\300\3017\031\300\327;n\277\3738S\277\303\264\362\276\004A\'\300B\246\325?\231\302g\277\207\252\'\300\000\236\220?\2727\312\277\273\022\026\300K\317\241?\t\226\203?\253 \354?\004\214\205\277*S\315?\376\3353?Zk\007@\007p\334\277\357\331\203?\317\034\222??Y\225?\235<\371\276\'\r\037?>\010A\2770O\360\274\265\264\241\277\022\222p?\246\3116>\343N$\277\230\270\000\276\033\333\271?~\'\000@\331&\215\277Y\035\006\277\200\202\200?\007\331\252\277T\277\272>\021L\272?\222O\304>\344\371H\277\"\371\306=q\254\020@\303\253\023\277*\007\235>\035\351o\275.\010\001@&\347\243?z\241\021?8I\200\277@g\223\277#\277\027\277\316R\212\277\227\3510?cb\004@\246 \327>?\224\234\277\2508<?\311\226\022\277y)\004\300\307|\r@\3069\342\277.\021\233?@I\000>\276\2516\277\377`\360?\215\350U\276$H\207?V\207\304\276N\3140\300\032\274\302\2775y\242\277\241\264,\277=\350\221\277\241.U\277\235\000\246\277\362:\226?\365\n\223?_\025A\277\333A\210=\245\034\326?(m~\277Y\255\321>\3215Y?\325=\003?\354d\201\277#`\205\2773\242\305?\377\376\312?\372i\246>j\260{\277\320\356\025\277\313\241\274\276B\207r\277}\372\233\277\250\372\265\277d?m\277\201_\030\277k*+\276v\360\331\277\360\236\357?w\202\245?\221\255\275\276\224\027\317\277\342i>?nj\200\277\226<\236?\235H7\300BV#@6.\265?\302g-@\000W+@\200\242\006\300A\227\310?\257q/\277Xy\352?\375\213\374?\305\311i?\025b\324\277\350\022\377?\256\354\r\300\275\375\202\276\277Js\277\307\020$@\326@&\300\307\272\312\277\000\030\244\277\"N\005@\010&q?L\220\006\300&\013g\277\023\246\324\277\005k1\300\006h\013?\266\014\032@jg\312?\210W\320\277\006\221\022@C\366\007\300\324 c\277q\357\255?\275.\007\300\273#\335?l\366%\300+/\365?s\232\351\277\020\204\256\277\336\260\207\277\356\313\257\277\300\210,?o\020\006@]\326\262\277\256\n\033\300BT9@@\255\225\277\240\356!\300Z8\227?\310\263D?\014\204+@\\/\017\277\250\010\t@\305\257\243?\363\014\271?\230\270\371?\020\251a\2771\342\006?D\271\211\277\3670\304\277\007m\305\277\377\263\336\277\222\313\367\276##\025\276\347X#@r\303\036@\007\222\217\277\310P\034\3006\263#@\370C\320\277_\375\220?\346\032\002?\325\2702\300\026N\361\277\221=Z?5m\323?\225\317\006\275\031\336-\300R\034\317\277U,\332\277\025=\276\277\000t\324\277r\002\356\277\303\363\022\300\337I+?\014y\325\277;\351\262\277\2535\271?U\254\n?\211\361\003?<\210\306\277x<\021\300z1\024\300u\260\361\277\202\276\364\277\337\323\233=\034\032\'@\362\225<@\021X\251\277\227\262;@\215Z8@\n8\362?(\375#@Y\374,@\212%/@\t\315\033@\360\304\231\277\317<%@\"\222!@*]\006@A\360\r\30015J@\313A!@eE\345\277\220U\273\277\303\367U@PG1@\013\347\026\3007\032\341\277F\274\276?\2042\270\276\302\246\367?\206\273\314\276\253\317$@\264\331\003\300mu-\300\252\300\260\277\205t[\277\356\226i\300l\201D\300t_\357?c\300\223=\020\023\030@\023\251\013\300\244\360\345\277\312r\260\277\303T\326\277@\3026@\013\\:@!\013.@\331\206F\300F\344O@\266j\'\3007\203R\300.\326A@Z\237\006@\007\\F@\257\340\005\300\004\2508\300n\001\r@@]\024@\343\364=@\310\220\272\277?)7\276?\213\367\277\305)\371\277*\337\326\277R\3777@s\215\204\277\177,\004@\315\200T@\367\212\031@!-\304\277\340\304M\300o\031G@\373h\361\276\305h{\277\376\351\374=C\225N@\267\211\374\2777&\370?\216\206T@Rj\'\300\n\311\364?A\270\023\300\220\214<@v\032\261\277\233\204\007\300cU\t\300n\241V\300v\302)?B\226\332\277\331\355\341\277B\272.?\256t\264\277\247\240\214>\230\230\337\277\233\200&\300\217;\\\300\272\271\024\300\222\311V@\335T\373?e\245\232?\010\200\021@\205\222\230\277z\360\325?\006`\234\277vH\246?\337\016\333\277\000*\305?\320\211\247?h\305\347?\003)\002\277\222\234\337?\322~\247?\361\005\237?\211\377\246\277\253\331\355?\221Jn\277\0132\235\277\261+\016\277&\250\365?\304\324\317?\266\254\304\277\371^\205\277b\020Z?\216\313\004@R\342\003?\267W\363\277\355\315\204?4\270\242\277\262l\233>B\362\034>\0309\231\277)\327\202?\230`\315\2775\266R\276\252\355\334?\307+\235?\333=\317\277\217\036\315\277\3231\233\277\367\200\330\277\030\222\346?\227\277\005@\373\316\311\277\302\302\003\300\031\266\331?\361\236\235\277Z0\034\300\264\211&@JX\217?:\026\316?\357\221\265\277\t\205\"?\211\252\014@\205\323\241?\275\360\254>\246\233\227\277\215\221\336\277j\240\010\300\225\327\352\277EO\240\277\303-\r\300A,W\276\014W\002\300U\305\t@<\376\211?C\226\207\277\211M\237\277XB\347?$\216\030\300\\\206\320\277\235U\257\277\302\026\273\277\366\326\230\277\3035\017\277\257\270\334?\221\207%@\330-\376>\365\325\257\277>4\312\277\343\266\n>=w\303\277\301\034\305\277R\004\362\277Y\035\203>oEB\277\030\245\215\277>7W\300\360\327\253?S\242)?B\317\270\277ot\323\277\242\242\304\277I\347\244\277\000\250\014\300g\034\345\277\307\\\352?!~[?I1\265?o\n\373?#<\236>\215\322o?\014\'\300\277\177\370\222?c\010\234?\033\262\233?\252_&\277\'\234\207?\\F\227\277\261P\032\277\024\256\001\277\363H\260?\006A\007?\214Bb\277\364\013\213\277~\013\270?5\312\020?\221\023\244\277S\213\'\277\206\027I>0Y?\276\'d\031?\022:A\277B\337}?\201\277\252\277v\210+?\201\r?\277P\331\227\276z\007-?\373\217.?5\356\260?\366\375\272\277J\300\330?\303\010\273\277\354h\234\277kk\266\276\275\035\202\277$L\203?\323+i?\245\272o?\204\373\230\277\274\233\265?{\222\343\276Y\330\374\277\243:\332>\231#\030>^\330\352?\232\036\336\277\225\343A\277\224\234t?\300U\272\277\261\022\223?+\3362\277\252\214\333\276\027\321\362\276\215?\203\277y\316n\277i\033S\277)+\233?a\251\244>\251\310\255?\334\215\237?\355s\026\277\254t\325?\213\t\366?\330\252\306\277~\034\361\276\247\357\n\300\254\313\r?\246\350\262\277\351\013q\277\332\231Q?<<\261\276)\337\206\277K4\227\277\375\236\036\277d\233\025?\005\016\204\277\316\025\206\277\350\366\301\277\332(\253?\303\003\221\277\253(!\277\032-D>\246\206\322=\314J@?\376 \236\277\206\224l\277\373\345\252?\301:\232\277$\215K?y\016\032?y\346\326?\010\007\264?\017\313]\277\3137\372?\243kU\277\022\241\221>\002\347\233?\356#\334?(\342\256?\3506\006@\260$N\277_/\340?K}~=\233\000\255\276n\266\230\277\014\006\014@\343e\235\277J\230\242\277\2270\221\277\205\326\021@\366\370\216?c\240\226\277\037\330b\277\300\222\245?\317\347\233?s\222\243?n\213\256>D\223\362?\'S\342\277u\266\252\277\374\220\227\277\363\356w\276\006\010\360\277q\014\362?\275*/\277\277\202h\276c\225\014@\321_\320\277\024\225\300\277@\"\024\2776\327\206\277\257\352\363?\332#N?k\304\357\277\224i\n\300\030\024\265?\333\350\264\277gV\032\300gc\247?\212\227.>\026\241\003@\207w\037\300ql6?\271\224\311?\033\211\032\300\2674\253\276\326\276\216\277\261c\207?L\251\341\276\230\264\334\277\206\366\217\277\177V\275?\177\235\366?3\r\274>ny\030@\300\034\233?\024$\212\277t&\022@\304Y\001@\364\214g\276\177}\342\277\273\032\336?0\340\305\277\377\271\236\277\221*F?\341-\311?q\032\277\277\230\325\027?\320\253\356\277%\200\315?\236Tq?h\210\246\277\247P\254\277\301x\373\277\333w\354?\335\222\332\277\254\337K\277\213\254T?\211u\216>\301\314K?\362i\354\277\277mp\277\222\030\263?\250\312\300\277\330\325\331\277\2621a? h<?\263,\214?\234\325J\277[ks?\373\342\241>g&H\276jJ#\276\024\223\201?\232;/?B\r\222?l\335%\277\0146\341?\263\000=?g\022\210?\251\t>\2778\307\260?y\203\275=\330vp\277\251H\222\276\"C\233?\350V2?\013\211T\277!y\225\277\030+\006\300\232\212\277\277\247\"\317>\261\000\304>\357\3446?\007\323\201\2778\327\036>\0108\304\276\314\023\024>t\021\013?X\334\200?\037\371s\277)\344d?j54?z\002\207\277\'\335\232\277\014\271I\277\336\307\245\277\360\242\n?\244\327P?\265\226\230?qn\304\277\363B!?\311(D\277\265\365\244\277\211\375\203?\253\266!>\222\333\254?OR\300\277\274[\360\2769\317\267?\'\n\243\277\332\n\265\277\245\262E\277\236\260x?@Z\326\276\006\366\205\277\350g&\2772?\262\277\177\330\207?\347\200j\277X\241\330?\227\366&? \005S\277\025\007\206?^\262x?8\372\311\277~\277\251\277Z~G\277%\315Z\273\272\002%\277\216\270\211?M\270A?\2251\243?\215 8>\345\234l\277\305z\217\277\226\025\315>\234\254\200\277\"\272L\2777\366\234\277j\344p?\204\327\n\2775t\000\277P\322\n\3009r\025>JxA?*x\213\277\261\025H\277\234K;>\244\312t\277e\367\227>"
      }
    }
  }
}
node {
  name: "block_1_depthwise/depthwise"
  op: "DepthwiseConv2dNative"
  input: "block_1_pad/Pad"
  input: "block_1_depthwise/depthwise_kernel"
  attr {
    key: "T"
    value {
      type: DT_FLOAT
    }
  }
  attr {
    key: "data_format"
    value {
      s: "NHWC"
    }
  }
  attr {
    key: "dilations"
    value {
      list {
        i: 1
        i: 1
        i: 1
        i: 1
      }
    }
  }
  attr {
    key: "padding"
    value {
      s: "VALID"
    }
  }
  attr {
    key: "strides"
    value {
      list {
        i: 1
        i: 2
        i: 2
        i: 1
      }
    }
  }
}
node {
  name: "block_1_depthwise_BN/gamma"
  op: "Const"
  attr {
    key: "dtype"
    value {
      type: DT_FLOAT
    }
  }
  attr {
    key: "value"
    value {
      tensor {
        dtype: DT_FLOAT
        tensor_shape {
          dim {
            size: 96
          }
        }
        tensor_content: "~\364\242?\326\376\275?\023\223\307?\200\211\267?\337h\302?\234\335\353?s\314\234?S\'\237?4\343\344??a\303?\226\265\334?\321\024j?\225\227\302?w\257\303?\362\322\226?\356\372%?\332\020\330?5\264\354?\255\021\247?Ow\024@\204\277\266?\213\266\237?N\347\356?\3023\314?\3758\313?\226\346\322?lm\030@\267+\324?n\303\325?/\365\231?\036\361\370?\r\250\337?2\306F@]A\346?\377\271\372?{<\277?\020o\217?\002\336\361?\253\r\216?7\230\350?\370\332!@!0\343?V@\270?\265\312\320?\372\210\377?u\222\216?\301\254\257?\336L\272?1z\311?\213\264\257?\237\277\302?x\221\343?\267\321\275?$?\000@\353\216\312?\214\344\325?p\346\310?Q\356\266?\251\025\211?\"Y7@\230\377\210?\202\374\027@ \355\337?\374\243\263?\017]\353?\033\201\312?\227\227\350?\271\235\267?\013\332\006@P\314\310?\026cu@g0\344?d\230\315?\245\214\314?\376\241\023@\324\305L?\352T\236?c\275\013@8\264\314?\207\364\235?\211\005\363?\377\270\324?\267\004\201?\037Qg?l\037\272?\236\003\202?@=\034@\353\024b@\255k\227?$&\253?t\320\376?\257\333\324?\315^\253?\017n\367?-\326\264?8p\000@"
      }
    }
  }
}
node {
  name: "block_1_depthwise_BN/beta"
  op: "Const"
  attr {
    key: "dtype"
    value {
      type: DT_FLOAT
    }
  }
  attr {
    key: "value"
    value {
      tensor {
        dtype: DT_FLOAT
        tensor_shape {
          dim {
            size: 96
          }
        }
        tensor_content: "\360\356\313\276\357^W?\262)R?`\016a\276\027\314\204?:\0067\276\216\324\n?\253\021\260\276\252\002\033\276whk?\216I\255>\266\361\034@\227\370`?\366\303\210=\034\355\001>kS6@d\241\200?\256\266\207\276*\007\250>\261\336K\276\222\352m?\307\322%?n\317\203>c\0232\275\204\005\256\276|\326\205\276\247\313N\300!\0306\276\207\010\214\276\337\023r?\025\2335\276\221\306I\274\303O:\277oG\300\276\214\252\372\276\3278\337>\344z\227\276\321\222r>\254\206\025?\261\314A\276\t\337\353\276\275D\264=\342m\212?\360\327\203?\246LU=T\221\026@\004{[?q\034\020?\370\335\207@\275\342#?!\217&\276\350\000\210?\210l\262>\327r\301\275,\223S?\r@m\276\014\373\327>{B\254>\333k=@m@-\277\354\367\246?\327=a\277.|\210\276\037\326\367\2759\211\236\276\216\177\231?p\262\273>\300\311\361>\3035C\276WY\270?\304\345\030\300\304\nN>\031\345\246\276\307\013\306\276\001\313)\277\272\243L=\225?-?_\363K\276\305i\343\275\311\246\224?\017-!\276\344\306\276>`\361\317>\337\206\276>\001\362W@\035\360\327>\370\311f\277#\017b\277\347d\305\276zX\030>\253\000\016\300\334O\265>o3\347?\n\340s\276)BR?\211\221b\276"
      }
    }
  }
}
node {
  name: "block_1_depthwise_BN/moving_mean"
  op: "Const"
  attr {
    key: "dtype"
    value {
      type: DT_FLOAT
    }
  }
  attr {
    key: "value"
    value {
      tensor {
        dtype: DT_FLOAT
        tensor_shape {
          dim {
            size: 96
          }
        }
        tensor_content: "Hft\300\354\025HAt\036\200Ab\0232\277\311\260\210An\206n\277E\233\014A\332Lf\277\207\224\024B\333W(A\326i\346AIP`\301\006#mA\033h\240@Z\224\037A\2500\332\300\307<lA\225\330\235\300q6j\301\316\251/\301\346\233^AW\320\010A\240\273\021\302\363\200k\301\004\361\022\300\242\260\257\300~S\322?^\353\022\277\265\325\004BJ\\\364\301\353&\252=i\214\352\277\275*\360\300\304\321n\301 \303\252\300\017alA~\273\205\300\261R\031BG\210\t\302;\001\330\301\341\316G\301\240\r\215\301\326`$B\224b^A\200F\256>\307\241\335\301_\217\306@\221\367\t\302\255\301\323\301\247\263cA5,-\300\217P\226A\337e\007\301\312\225+\3006c6AM0\353\277\006\255,A\270\323\010\301\3610(\301\311\213k\301\000_^\301\004\324{\3010^\344\300\267lQ\300;\022\221=v\212\202A\211\214\370A\036\312#\301\345\034\014\277r\373mA\300\367\351\301\n\002\311\277\177\343\325\300\005\367\t\301\023Z\242\301ZM\036@B\260!A\303</\300Ax\371\277\220H\016\302\244\265\336\277\343\020\354\277ID\025\3029/\n\302\232\235+\302\243.,@\036\240\213\301\266\241g\301\212P\312\300\300\2361@t\223\362?\264\255C\301Sv\325\301g3\263\300\251v\346\301~\030\221\300"
      }
    }
  }
}
node {
  name: "block_1_depthwise_BN/moving_variance"
  op: "Const"
  attr {
    key: "dtype"
    value {
      type: DT_FLOAT
    }
  }
  attr {
    key: "value"
    value {
      tensor {
        dtype: DT_FLOAT
        tensor_shape {
          dim {
            size: 96
          }
        }
        tensor_content: "\037\032\257A\221=\213C\334L\322CZE\256B(\222HDr\303\"@KO\006C\222\333.@\342T\211C\037\364#C\205\226>C\376\212\344At\356\372C\307v:AZ\025\nB\314]MB\217\r\243CO\\\004B\304\007\214C\221;&C7\r\247C\255\302\021C\032k\216D\265={C\346\350UA\334\211uA\340_\207A\261\354P@\250\\\022CN,lDf8lB\350\223dB\265\223\320B,A\237B\003I~BU\024\030C\203\226 B=\252\351C\363\007\222D\270\361!D\250%HC1\317\273C0g\241Bx\265gC\270\340SAz=ZD\333\371&B\356\352\004D.,jD\227\326\247C\346\246!B:\202RD0\004\315B\335i\324A\331\215\233C\335\247dB\033z{B\026\313`B\242\323SB\300?\267C\020\215`C\213\356\360CK\013\023C\013\233\231A\364|\245A\242\221&D\317\206\327C\212B\204B\233j\204BT\264\007D\227\356)DbV\360Av\265MA\\\342\234A\205\0303D:\366\030@\333DwC\'\224\316B\372P>BQnSD\240\376\307B\272QK@\372\310eD\235\021>D\247\272\361C\276\367\346A\263\177\004D]0oC\036\261\377A\033\253\331@\321d\312A6\364[C\341\253WD\204a\234B\236\2575D\033W#B"
      }
    }
  }
}
node {
  name: "block_1_depthwise_BN/FusedBatchNorm_1"
  op: "FusedBatchNorm"
  input: "block_1_depthwise/depthwise"
  input: "block_1_depthwise_BN/gamma"
  input: "block_1_depthwise_BN/beta"
  input: "block_1_depthwise_BN/moving_mean"
  input: "block_1_depthwise_BN/moving_variance"
  attr {
    key: "T"
    value {
      type: DT_FLOAT
    }
  }
  attr {
    key: "data_format"
    value {
      s: "NHWC"
    }
  }
  attr {
    key: "epsilon"
    value {
      f: 0.0010000000475
    }
  }
  attr {
    key: "is_training"
    value {
      b: false
    }
  }
}
node {
  name: "block_1_depthwise_relu/Relu6"
  op: "Relu6"
  input: "block_1_depthwise_BN/FusedBatchNorm_1"
  attr {
    key: "T"
    value {
      type: DT_FLOAT
    }
  }
}
node {
  name: "block_1_project/kernel"
  op: "Const"
  attr {
    key: "dtype"
    value {
      type: DT_FLOAT
    }
  }
  attr {
    key: "value"
    value {
      tensor {
        dtype: DT_FLOAT
        tensor_shape {
          dim {
            size: 1
          }
          dim {
            size: 1
          }
          dim {
            size: 96
          }
          dim {
            size: 24
          }
        }
        tensor_content: "\241\312K>\1771??\214\013.?\340\352t>\362.\030?\010z,?\\1O>\334\037,?\351=/>)\377F\277C\210\305>\237\324\\\274\333\017=>\220\010\205?y\265\371\276P:0<\r\223\242\276\200\022)\277\016\350\016?-\315\342>\314\316\005\277\347\257A\277\365\007\332\274\375R\016?D\335\037\277\375m$>\273\317\357>@\212\026\276\026\216\233\276\314.\020>\004\006\025\277P\001)?G\251z\276\270\227\201>\025\242\310<$\276M?4\273\022?\2007\261\276\t\033\206\277!p5?\263\345C?\375\303\215\277v\302Z?\366V\n?\246\324]?\r\226%?\351z>?\265\215\324\276\227k)\277\340*\224>\342A\273>B\2249<\217\021\035\2774ok\276\276\005\357\276v\357\025?R\324\261\276Z\347\014?\0012\336>\343\234\t?\2772\225>yE\357\276\333l\013\277\020\267\027?\367\227\201?\262\376\022\277\257\016)?Y\004C?]\237\241\273\005\2710?N\301\023?D\331\000\277\025\354\237\276\304\377\r?\253h\016?\232\313\375>\222\233\010?\325\"!?\227B\027\276=X=?\270\324\033=bO\301\276o}\206=\370,\254>\314\300\335>\236\201(>\300\357(\277\014v??\356q\000>L{d\277\207\017=?s\327\373>rC\347=\372\253=\277x\363j>[\327\033>u\017\023?\\\022n\277\325\355\022?\214\347\276\276\210\242\016?\205\224.?\266\377#?\222\371K?\220\003\365>o\263\325>\341Y\247>G\262M\277F\207\031?\344\n\373<\254s\017?\241\036\313>\302\227\223?]\213\021\277\n6c\277\334\355\020\277\2201\350\276]\026\215<)\313\272>\332\206.?\023\3770\275\244\003\266\276 \245\214?\275\223\234?\306\350\035?(C\213?\301G\005>\205\316\n?O\0303?(\3277\276H\\b\277\373\204\232\276Z\361\007?-\261\006\277A\325!=\327\370\342>\334\365y?Yo\007\277<bq\276\205\372y\276K2\366\274\331\022\364\276j}\226>\345\322!?\311\006\252\276&\372\010=\3223\315>k]\331<\307l\247<gJ\244=\2042m\277\304\t.?\330|\274\276\'7\372>(\277\301\274\270/\004?\372\301\016?\205\374*\277\325\r\026\277HL\364>\t\n+?D\027\003\277S\022&?\352B\033?\266\363>?q\374\376>aY\021?\352/\211\275o\310\260\276nC\016?E\353\247>Kr\234>\223\307\354<\261\352\202\275\314\215y\276\t\237\'?\265\315;>\275\216\323\276\323\226\335=\034+\235>B~u>\007@\n=\243\364\327\276\nCu>\205\230\254\275?\030\t\277\331\256%?\004\220\203>\345\rt=9R`\276\237N\371>\350w\021>\253\322\004\277/\244A=o8\022>s\201\250\275{k\237\276+\271\345<\270\324\352\276Dz\272>\245A\230\276-+\315>\025?\242>X)5?\236$\265>\344\352\037\277\232Z\003\277\323\304\016?\017\315\030?\373\260\t\277\252\236\353>\365\232\035?M\027O?e\335I>\301\r\217>\020\251\000\277\216?\017\277\305\202n>\3561\200>\0041\374>\377i\311\276y\344\236\274\320\337\024\277\350\242\t?\277\256\226\276&\004\001>\352\247r\275\356\265\201?X~\032?\360^<\276\033\256\007\277/\326\355>\032@F?\003\362\021\277m\030\216>U#i?\t\206\035?\370\237\n?\302$\014?\003\222\010\277\372\2411?\366\262\031\277f\247\031?\217\356\246\276\375\203)?\225\210 ?\035k\335>\363z\021?O\250\272>\251\227\215>~r]>\323\3234\277P\337\226>\335w\025>\352\336$?s\277\242>\034#\006?\271\241\275\276s\325[\277u\023&\277q\206\325\276\216\220\201>-\013\345=cR\236?;O\320>\226\240!\277\005Q\236>\005\177D\276\336m\366>O\245\315>\225\021-?\032b\264>S\356F\276\0327\260>\334\212T\275\017h\007\276M\270g>d\271\203\276\232\332\001=\353S\242>d\324\313>\212\020\020\276\312\013)\276\240\311\256\275\316\354\032>\020\020\016?:\346\302=2\211|\275ehy?\215\031\200\277\335\3761?\251\"\367\276.4\226>e\337\214?\027<$?,F6?\250H$?\353\204\001?\365\220\216>#\032:\277 [#?N\261\037>\210DG?\261\337\032?\272\236W?\355\247:\276\211\035\014\277\217A!\277\342| \277\354j\230>g\312\263>\n\203q?\344\310\300>qb\002\276!C\365>\017\3024>=n\021?\023L,?\226M(?r\2374?5J\240>x\002\000\277*}\300>uo\301\276t\002\367>$H\001?\340\265^>\016\240\024>\260\020G>\031\304\005\277\345I\035>L\266\202\276m\177.\277\333\231\370\276-T\363=\002QE?\354\371\355\276\344\351D\275\322\006j\276Q\325&>\024.\315\276\360\016\232=\311R\023\277\367\177\374>s\033\263\2762\352\262>?\220d>`\3170?\302=\364>@ \036\277\313\345\374\276\025\366\376>nE\331>[!$\277\013/1?E]\311>)\232\330>\325\215\003?\345\203\210>\315\310\312\276\360\207\235\276l\033x\275?a\276\275m\277\024\276\304\025!\276r\243f=\327\313->\371\366\347>\201\341\017=\365/\367>\'\003\222\276\240\364Q>Cn\221>\245\304\342\276]\216\030=No\206>v\210)\276\023\021D\276\027\035\213\276AjA\275\222\227\025?\225\225\036?\242\210\010\276\243ey\276\317\252\t\277\343\352\253>#\254\253>\321\353\360=j\203\267\276\234\212\024\276\325\202\"\277\")-?\006\223\247\276Ta\374>6\034\035>\256\263\207?{g\374>TC\215\277\354\221\032\277F\002\027?.&-?*D\035\277\270z\204? \315\333>\227\357%?\367R@?\222\217\257>\307\274\035\2777\335\215\276\005\277\204\276\316\035}?\201F\247?}\031\010?\003:{?r\267.\276d(\366>\257b*?W\272)\276\341\352\202\277\276\355\274\275\207i\336>\274L\016\277R\220\233\276\275V\t?$4u?)0\r\277x\320\264\274\3033|<9\325\231>\207\201\300\276\332\022\366>\032[\327>\346\354\t\276\267\304O>G\252\223\276\324\266\261\275!\016b\276\366\362\217\275\313\353\004\276M\251k\275)\014\032\277\006\254s>\316\021\027\276m\001\266>[%\'\275\2632\307\276\372f\264\276\302\373\205>N\357\354\274\345DT\275\200\313.=\034\344\343=J\314\006?\245T\005?\255\002\026>%$\002\277\023\003\016?\233\017d\277\216j\027=J\013\034\277q\201\372>\312\252\017?[\372O?\241=X\274\032%\222>\007\375\277<t\201_<\231Y>\277\3009\257=\340\n(>\306-h?\356WX\276\236\341\311=,\215\036>\325\245\233\277W\311E\277G\201\321\276\325\375\035>\351\341\017\2778x\035?^\316\371\276x)?>\200\000N>\021\3132>Z\266\333\276\330.\200<1\212\000\277\244M\366>\003s\241\276z]\215>Z2\321>S\216\201?\361G\343>\253\226\016\277\273P\t\277\3644\351>\373\370<?\251\264*\277\324\323\366>\246\266e?\266\345v?\341{\262=\343\315\250>\014\323\004\2770\351#\277\222\376\226>\007|O>`e\016\276\372\300\337\276^Pa<\317)\261\276e\235\004?\3277\261\276\255\351\371>\341\004\335>\223XE?\007\254\323>\305=\010\277\014^#\277\260\2026?\254D+?\021N%\277\205BJ?\001\226\301>J\0058?1\327\253\275\343\241\317>\n\210\275\276\177\371\000\277o\224\254\274s3\025\276Yw\357\275\261\3613\277V\021#\277b\271\t\277\214\324\210=\311~\353\276\346\371N?\372\036\000\276\253\363$?h|\004;\215\362\241\276p;\224\276Hlv>Jr\314=\235\371\006\275\376\333A>\024w!>\360\233>?\023\r\372>#p\326>\262(+\277\325\001\211\276\270\363\">(zb\2769\333\371\274\333nt\276\264\265M\276t.\340\276\201\010\376=\265\026\030=\261\261\304>\237w\247=x]\020?\327\006\310=\211^\220\276\222\022\276\276A\007\243>\223\230\274>\360\237\243\276\354g\370>\362\323\245>\331\014\000?bD\363>2 \362<\353K$\277\303\327+\276h\264\260\275\273vU?\223\001\210?GYK?\3634}?\026\336a=\303F\034?l\277I?q\313(\277\233\341\022\277[\216\353\276e\027\000?{\330\323\275b\301\313\276z\335\005?*(\340>5\007 \277\362\376\220:$\336\223\275\313K\300=\211\215T\277\2674\n?z\000\026?/\244S\276\'\271\230\276]\303\247>\225\305g?^\r\235>\351\323\354>Z%\252\276\277\245\230>5i\t?.\205\245\275=Dx\277\364\322\241\276\331\235j>_\311M\277-c\200\276\224\377\260>\313\306\010?>\316\246\276\030R\205\276Dg\264\275\300\007\373>\235\016\000\276\372\263\010?\366a\014>\307\303,\277\267!\"<#\214R?\270\337\241>[\207\013\277\3350\340=\177\270C\277\202\212d?[b\320\276y\2671?1\216\035>T#D?>\314>?\3024k\277\350;K\277\222\2468?l\204\252?\004<x\277\006X\241>\355j7?o\270p?\260\\\204?5F]?\30440\277_\255\327<4,\367\2763\323\'?NJv?l\236\321>\207\363/?\225\307\232\275w\306\236>\272\316.?5\016\262\276\322\305S\277\226\007\357\276|\307\334=\221\251\n\277f\355\231\275p\007\221>c!\007?\255\003\307\276X\335\202\276\223aO\276\217\376\025>\350F\202\276\366_\304>^N\324>\335\230\323>\215\243\354\276\227\314\027>-\005\257\276\\@\000?\354\374\004?\237\022\245>\2738F>\320\022Z>\253\374d\276\212\323\\\277\202\337\330\276\214\372\245\275\2513\326\275F\351\254>9\336\007\276\227\307\266\276`l\020>\005\r8\277\252?A\276\331\345l\276mZ\030;Q\373\214\276\254\371\321>\023)\321\276\333w\201>?+W\276\021\247\205\276w,\024\275\254\003\222\275\231\376R\277\227\333\230=\365\360\022\277\300\020\220>dd\211\276\r\022\"?\224\005\343\273%\261\025\276\020\344\020\276\334u\355>\331J\230\275z\336;\276\"\033\211>\223 \370\275\324\333\255>\010\032X>\010h\034>\221\237G\277!\3721\277t0\210?\327\363\236?N\206p?)Fu>L(\340>\261\035\027\277H\n\212?\255\324<>\351^U\277\335/\245\276d\206\331>S\2525?\320}\021?\204\022\202\277X\342\031?#Y\313=*\326\211\277e\202\203?\367r^?o\3076>\232l\204\277\030u~?\007\\\340>\030\233\272=T\254\034\277q\234\245>\017\016$?\311\322\325>]\363^?\006\333\310>iaC?\305\3370?{\200\034\277o\256t\277\014\372\t\277v,\r>\213\313m\277-D\344\275Q\030\246>\002\rE\276SQ\276\276+4#\276\014\375h>Y\366\316>\3207n\275\013\222l>\375T!?\275{\354\275\264\246\316\276\036O\326\2768\351,\277\"T\366\276)\257\271\276v\373\230\275\207\021`\276\003\337\310\276s\276)?_\003<>\024DJ>yYo\275\357\341\345\275\221\343\201>\200\243E>\221x5>\002\000\236=\222c\271\276\256\224y\276#\002\242>\224\261\203?\374\237\222\276-$\326\276X\342/\276@\261\t?\326nx?\247\205\005?b*D?\344{I?3SG>\334-`?nz\320>\234\302D\277\206\333^=\033\'q\275\271\360\326>\231+\010?\033|\001\277\037\320&?\341N\035\275\322\376v\277`\3118?\345[\316>2\030\343\2760b\255\277D\240\275>\257-Z?\250\257{\276\270\201\'\276O\335\032?\211\301\022?/\237\026?\364\375<?|\346\025\277$\242\010?m\317:?\353N\370\276\3508\224\277\275\305\014\2773R\020>\227#\250\277\231]\350\276\031\217\317>o\307\342\275b\210\334\276\343b\337\275\355\316\232>\202=@?S\335I\276\2443\377>}.%>Ec\356>i\033\241\277Z\333g?\027o\231\2764\371\204>Zy\027?\337(\023?\324\306\r?\224\005\244>p\231\003?X9\271>\3343n\277\214\'\033?D\037q={\240*?9\304\217>\264\2262?\002\223$\277M\311c\277\226w\034\277-\351\007\277\264W\223>\035\251\345<\327\364R?\217\314\303=\243\376\013=\250&\201>\352\312\r\276\264\211\t?\373\2158>\0275\t?\372\314\314=\000\rV=\270\363\261\276+\377u>\275\221Y\276Y\302d>\227-6?\005\250\n>\037\357\204>\207\006\'\275\371\224\233\274\352\365\010>\202\207\264\275\201\023\367\276\331L\210\276\\\346\202\276\2260+?\361\240\023\277\257\242\226>\205\267\266=\364\347o>\244\356r\276\217\252E>\014\245,\277\014\340\366>\264\274\310\276\325,,?5\320\034>+}\226>:I\300>\240\031\323\276\301\233\325\276\230u\016?M\320\017?C\210\347\276\220\320\035?\033\004B?\340j\200?\202\342C?\351K\372>N60\277u!\234\276\344\214t<\252\221\320\2751X\376\275\221\030\221\276k\030\003\2766\\\027\277\023P\353=^\274z\276.Df>i\034\013\276\247\353\351>\375\263\001>\242F_\276\304\241o\276\245r\220>\337-B\2758\204\200\276\210\215\360=N\205\031>(\353\n?\261\212V?\025\035\022>p\337\r\277\310G\036\2761\013\030\276\340\201\220;X)\230\276\017T\335\276-2\030\276\034\255\310\275\314\322$>|5\213\276\221\301\002?\250J=?=\033\311>+\360\262>N\246\215\275\326\331\321\274\324E*>L\206\271>g\227W\276\013\332\034>\224\004\026\276\271\016\303>a`\027?x\306\205\274\237\005\230\2768\0013?\roh\277M\177r>\342-1\277\203\316\252>/g\344>\004\215\034?\316\277->+K\206>\206\326\351>R$\363\275ij\033\277\305`\n>\005\213\222\274\022\361v?7G\262\275\326\266N>5*\262\275\330\266\205\2775\257|\277U\331\022\277\023\247\'?\332g\303\276\325\347\355>\254JS\276r\004F>\345\n\001\275E\205+\276\266l#\277\017)\332=@(\235\276\375\t\204>\222\261\227\276\263\254\003?\033\3326>\246$\356>\003{[>\225q\216\276\325-A\276\2473\315>\216j\206>\347S\213\276\022q\003>@\017\342=qa\276>Q\325\021?\313\344\345=K\224\236\276\352\2536\276\016F]\277\214;\307>\2129\264\275\276\313\026=q\314\001?4\250\300>j=\355>\006\224\262\275h\331\000?H{\262>N`\262=\244I\027?V9\206\275\301\345\227\275\274\262\364>\306\313\016?5/\274\276\033\316\217>\350\251\032=\377\024Z=\356\022\220>\2626\006>\346\007\254\276\032\242\364>\034\217g\277\204\361\017?Q)b\275U\035-?l\037@?\235/\363>\361\260\001?}\2522?\2516\336\276\362\335\273\277j\035?\277N\337H\274\007\0140\277\330\n\242>Q\365\340<O\222\226<\331!G\276\244\366f\277\336\314d\276\206J\257\276X\255\356<\301\325\031\276\324\003<?\010/C\276N\203\257\276\301Y\207?$[\274?\004\341(?k\250s?\344\256\014\276\265J\035?\224\272R?9\307\215\276W\222\213\277\232\307p\276\377\370\311>\203sI\277W\261\262\276\026t\362>\035\342f?V\365\'\277\'\370\260\275D_\010\275\261zh>M\024\020\277/\331C?\373a\004?k\340s>\020\3601\277\221\232\311\275wk\207\276]3\220>\243\332\264>\360\\\256>\306\206\266;\351|\255=\013\204\204=\200\007\002\276\250\276\007\277H\251#>\206\317\357>R\205\311>\212\235\034=\353\231\343<t]\024\274\257\361[\277\335\241\225\276\252Q]\276\331\177\363=\033K\346\275tD\251>\3233\r>\306\002\017\277:-\033>\350\275\024\276\032_\026>\271\321%>\263\262\311=\026\025\215> U\322>\021\017<>\272k\260\277\351\337R\276\312)\215>\364\260\245\276\320\353\314:\001\204\367=\277R\205=\207\236\177\276\010\371\343\276\200\252\t\276\271\371\035\276l\342`>;K9>\372\346o>\360w\024?k>>\277\322\366\325>>o\336\276\252\243\033?8\317[?!\026G?j\033\237>\245L\331>\345\350\272>:On>\236l?\277\367<\205>\247\251Q\276\210\033g?GF5>\222\nA?T\346\236\2769\261r\277\375\310\010\277\366\244S\277\206\267\274>\360y\355\276\216\t\'?\343vH\2768\004\362\274\245]\206\2766\240\223>\024\2432\276>T\277=gnh\275pc\274\274\342\371-\276D\207p>\221qj\276\240\001*?u\230\030\276\006#\030\276\371\033*\276\365\310\354=\026\336\331\276\237\333\264\275\2516\204>\344\r{<\'m\237>\263\337\030?\2014i\273\346R\327\275\242E\023\277\215\353\002\275\241\276,>\307\235\374=\304\3164=\204\375\241\276\242iC\277\302t\000?\312\321N>C\353\023?\"&D>\276TI?\031\214\032?31\333\276\\C\r\277\006\361\020?\010\002T?v{\032\277X\010n?b\336\006?\274]9?\334\324\002?hM\233>\027\343<\277^N->\243\344l\277#`\010?\250p\030?u2\325>\002&\017?\333\010\331=\236\377\227>\353ie?\331l\230=s\226G\277\277\276+\277C\316\330>\020\261K\2778\331\217\274\201%\343>Cp\360>$\200\000\277\n$\332\276\255c2\2769\'\204>>\354\024>\311N\215>9\307\344>\256;d?\212\351\231\277\341\201{?Wcw\276\0075\036?\001\274N?P\300\241?,7K?|\rh?\r\235:?\0052+?\315~\215\277\0275V?-\214\225\276\275\346H?d}\241>:qi?\333#=\277 \245z\277O7\265\276\314Y\035\277\265\332\014?\261\327R>\263\351\232?N\307\230\276\004e\223>\356g*\276!\221\221\275s\215\355\276N\260\263\276\266\225\037\277\211\024\277\275HA\272\276\2671\325>\215\327>\274\226D\323>\nY\214>k\3006\276;\320\223\276\342\230\246>|?\233=\262\222\311\276\026\327\251>\206\3604>\003\031\035?\246\277\342>~KJ>W\2375\277\353\200\225\276.\337f\276\324\363\032?\373}\265?\371\273??m\022u?\351H\263\276u\202<?\2304@?\324\217m\276=\347\224\277j\326\026\276\244y\013?\266\224V\277m\251\370\276\207\320\020?\375\363|?\271*.\277\360\237\000\276\223\375\005>\311\243\002?\003\364\371\276\235zA?\312D\261>\216\354\006?h\265\027\277\364\267U?m\245\303\276X\253\025?\225|N?}\031y?\333\256*?\0149\337>\3207n>\246}5?\333\0003\277\371WM?\244\214\017?\273\2730?8\240\255>\323\004H?\243\303;\277\252\303\311\276\365\221=\277\306\354\201\277\274\037\n>\237\225\231>\003\024\200?\347\"\000\27782h=V\326)?k\3061? \275\352>\235\263\035?X\034$\277\305J<?\032\355\022?Q&\311\276\021@\210\277\374\365\214\276W\313\246>\336n\250\277\023\026\037\277\272\024*?\016\330\3258\360\021\'\277T\323\016>X\322\t?[\307c?\331\370B\276S\375\032?M\265+>\273X\007?2WD\277\300H`?\241\352x\276\340\273/?5\021T?\200\010;?\251\205\373>%b\375>u%\246=b\255\234=\003+\224\277\245\002\335>f.Z\275\014\212Q?\017\216\220>\372\"\014??8\211\276\226H\210\277\241\240J\277\240\023\375\276\024QP>\357s\000\275\266%:?\261\253\252\276\226v;>\2258\370\275J\'\224\275\013\272&\276F\277o\276\013\365\010\276\255\037Y>\267\352x\276Q\231\211>\005>\025>}\300\310>\232\177W\272/\371\366\275\342\323\376\275\257\327)>\321\364\247=\266\340\361\276\'\2070=\304\250\r={\326\223>\3427\340>\034\373\225\276\240\001\235\276Q)\252\274o\274X\276\202\304\003>\340\343i\276D4N>\030\014\232>\310%\010=\'I\362=\0343\356>\312\004\256>S#\006=\337\006\017>\005S\232>\373Y\376\275\225\016\325=m\235\205>\007\275\301>\224\325\204\274V\204\374\275\245L\367\275\310\2653=\207\373\300>\334\375\025>\316\324\005\275|\276\021\277\020of>\020\254m\276U\215\021\276\274\302\345\276\377\017\252\276]~(\277t\263\220\275\340\246\002\277\356r\027?\024%\010\276\001r\346>\"\240\025>\373\314\306\276Ehl\276\tt\210>A3\242>O.\253\275\301\202\225>#\367\233>\366\224\036?\301\245\365>\217\313<>\235\325\'\277\277\230 \276l\233\255>\232\335\\\276C\035\035\276d\0054>\350\3725\2758J\251\276w\352k<&\026\246\276\026N\020>V\023e<\2329\275>X\227\245=&\223\261\276C\024\026\276\232\023\205>\276\257\013\275\376\"g\275\247\031\223\275\203\001\254;\0265\230>e\275\352>\023YY>\206\204\032\276Y\227\204\276\222k\217>DAQ\276\"\254\n\276\007\032\210\276\236w8\276\200\233\373\276q\276\330\275&\315\325\276\213\257\340>\014V\004>\220\257\023?SB\220>\211]\207\276\205\007\203\275\024\355l>c\262M=\212\215E\276\0140\227>\243\260K>\232\344\306>3\223\r?\271\321\037=\201\221\034\277\177\230\030\2777\374\215?\r\354Q?\366tW?\316\245\000?\325\337\021?A=\314\276;\276y?\203B\214=^\356W\277\254\237(\275)\342\337>\"\257\022?\264]\251>\211O\202\277\272gD?\250:\330\275~\202\202\277%\315\213?8\216N?\260\030\271= \261\221\277g\202\024?X\013\204>\257\334\254\275\000\231f\276\242\313\241=\231\\\333\275\026\233J>A\327\275>\223\2610\276Z\212\245>]m[>\371\224c\275\332>_\277\323\241)\273>\020\200\276\221\320=\277(O\207\276\353\030*=\262\004\346\276p\032\275<\260e\350\275 PO>BH\373>SN\233>\302\000\324\274\027C\355\274\021-\024\277\234\232\227?\222>\200?u2!?\277=\245>\340q\370=\364\r\370\276\234\226Q?^\2650>\306\357\205\277\362\270\212=\267&\322>)\366\242>5\216L?\n\023y\277\000\235\256>Y\330\002\277U\231\\\277sz\177?\030\251H?]\310\276=\341\000\221\277\027O\000?\265\325x>\224\245V?\'Ma\277OCx?5B\300\276\302z4?VTZ?\354!y?N\266p?\377\312\021?G\352\007?(\367\276>v\350\263\276\264y2?\270h\357\276\001\023X?\274\306\270>SSS?\334\344\036\277\212\244\337\276\226\352R\277\324\264H\277sy\032?\036\313\245\275\007\275r?\217D\027?\003\0054\277\305\031(??\261\334\276\233\2327?<D\211?=>k?\242\037\036?<\376\370>$<\025?=\375\025?\"T:\277\021\r\007?\0209\241>w(_?\335\302$?r\307Z?\220\016G\277?\006\365\276\225\307\020\277\0346\210\277R\264&?\214\277\207=\250\026h?}\002\t=(\005\275>\370\324\214\275@\316\356\276\226\366\013\276$\037\017\274\316\355{\275U\030\234<m\362\333\275S&\376>\253M\234>\205\260\232>/3b\275\005\024%\274\206\217\243=_<\233=\373\272\205>\035L\252\27488\326\275+L \276d\333X>\320\0222?\r}\240;\'\374\013<J\035\222\276\351\"\376\276i\246N?(\220u?\004\317\340>\264\245c?\226s\247\276>6R?\200o\202?\301\363\006\277\263\257\304\277\344\360;\277KY\202>\256m\310\277\010o\021\277\r\353\022?\310\242\340<\223\217#\277\223\301I\276P\222\310>Y{K?P^\247\276\256\211d?\0225\253>H\363\t?_\022\211\277Tv%?!\'\317\276\"@\n?E\223>?$x&?\035FP?;\330\004?,\375\331>\356K(>\233?`\277U\324\007?\323#\367\271\214\327\013?;\262\315>\r~\210?\375I\n\277A\315t\277?\215!\277c\333\267\276\342\264K=\001\013:>\235\3545? \0303\276<t\311\274\250\377\371=\300\311\212\276\276\310\251\276V\345\265\275\361wU\276\362\224\220>\013\347\231\276\346\2334?\344\353R>\000\302\003?UM\304>\305\035\321\276\004-\t\276\376Hj>M\177\005?F\034\304\276Z\255g>\0141\321\274\256\n\203>\363X\037?\364\327\036>\372\010\313\276,\311\347>\304\236R\277\003\346n?}\344\004=k7[?E\024\214?\021TM?\301\023\023?\315d\031?H\023\334\276\357\010\340\276N7I\277@|\204\275i<Z\276I)\230>\310\210T>\273X\267\275\226=\225\275\002\350\006\2774 \207\276\256\222/\274\372z\370\273\373K\215\276\337\307\\?7\037\244\2751@\'\276\233\016^?\232J\202?&\026&?B\245\201?\3774\261=\244[$?\215\334.?Si\265\276\336\320\274\276\355?\205\276\365\020%?\323)\314\2761p\211\276\301*\224>\254\354J?\275>\036\277#9@>\305V`\275\220\244\226=1\004\304\276\354V\326>\031\034\036?\330j\302\275\333\016\t\277,Lw>\255\300w?C\361\344>\020\2652?]\276b\274>\216\315>\333\375\036?a\362\302;P\231O\277\367\007\244\276\014[\263>\316\327\335\276\023\322!\276@Vd>^Xm?\'\257\255\276G\355\300\276\350*>\276\016\344e>D\307\215\276\36046?\002\374\310>Y\357\337\276t\336\227>\272\203\212\276\215\216Q\276\\T\236\276\204\303\254\276\360\2215\277\261$0\27400\355\276\205\351\321>\326\314\237=\303h\364>\273\323\350=#Y\324\275~\305\270\276G\r\257>\220X\371<\235\343&\276[?F>{#\235>mX#?\010\255\306>N\302\203>\374\263Y\277\270\026w\276\273d\013\276\032a\236\275?O\362=\324\003a\276\374\360]\275-m\252\276Yq\201>\262\334M\275\230\311\232>@\002\335=\216\242\321>&i\231>G\227\217\276\274\372.\276\033\265\006>\216%\240>\343\210\205\276\301\246\250>i\273\252=\177\2541>\024L\364>S\tj>\330G\214\275zz\025\277\t)\314>K6\263>\346\344\205\275\3661\235\276\364R\216>\366\355\325\2768\207\007?\237\212\255\276\345]\256>\232\236\341>\220\031_?W\332\365>%R\336\276\324 \026\277\313\025I?\027X\017?\027sW\277&\032:?\216\356!?\204\225??\221\266\213\276\340\361\331>M\270\267\276\r\214W\277\3274\272?ir[?jOL?\316\350\225>\023{\223>\205\0321\277!\273\204?Ww\333\274H\037\212\277\033\326\001<\002\275L?\202\263\257><\314\004?8^\235\277\033\316U?+L\343\276-~\217\277\263\'\245?\034K\204?M\366\177>\352k\275\277\337\230\'?=/:>\332\356\002\2771\033A?\\\\9?\345\035\023?A\223%>T@\340=\203\261\326\276\224d=?[\224%=\220R4\277\272\244\252\276%Q\026?\205\240\245>a\3321?\275T&\277\362q\301>\010\032\031\276\002R\"\277\221\261\006?yJC?C\237\013\276\r@\037\277\034\245\007?\322T\240>@\023\013?\257W`\277w\206%>\252*\222\276+K\246>\275\347\314>\356BH?\273,\364\274Lm\244>\025W\204>^\314\236\275\001\303\343\275\362\311\341=\367n\211>\300\262\375>\244\'\023>\366\364b=\236$\024\276q9O\277:\266l\277\034\241\035\277\350\216\261\275p\245`\276\340\357\"?\304\277\036\277\"\245\204?l\351\227?\212\331y?\264I\026?&\n.?\231\000\363\276\352\241\212?)\262\304>\325\002\222\277\010\323\305\275|t\242>\n{\005?\353&\'?*Nx\277d\300\n?Nv\255\275*\367\220\277s-\212?{di?\332\363&\276O\311\305\277\3343-?w\350.?\375;\237>i\2202\277\245\336Z>\306\024~\276\245\252\302>>\256\006?+\002\027?\311E\261>6N1>\236\026s>\344C\254=i\230\230\276\326e~=\357X\201>\364\311\331>o\326l>.=3\274m6\276\275\360z@\277`\260\004\277\037\306P\276<\260\215>\360\242.\276@\177\357>\025J\033=cl\266\276\320>\364\274\027\326\201\276\214\334\021>\357n\313>F`\343\275\027<0=\315;\361\275v\360\002?\244\242\245=xP\367>\251@\263>\243\373\017=\025yM\273\t\307u>s\373\232=\201\357\234\276\370\227\247=\220\200a\276\275\331\022?\376\005\245>/\033\251\274\271\351&=3\361\322=\236\261\235\276\266\203R>A\341\342\275\022/,>\300T\214>\026\214\264=\275\211\267>\014Fc\275\253\327\354>\206)\r?\325\307v>\206\254\206>\036? >\022\321\210=\320\005\243>\303\006\262>\005\277\234\276\017\023\214<0\2760\275_Z\211=\327\"[>\201R\371=Y\235\004>#\274\013\2778\261\222<\2416\000\276_\273\n=\t\355\211=\322M\333=\027A\016\277<\240G=a\321U\276_\210w>\235\214+\275\276\331\320=T\214\312=c1\301\276\221\346\267\277J8\255>\020\032)>m\331)>_\251\226\274\223\266@=\210^e>\367V\304>\321\204T\276\037\013\357\276N~\242=\300T\010\276a\301\n\276d\272\000\275\221K\233\273\376\365g\276\262r[\276\313\246\"=t\307m=\332\337\022?\223\347\013>\353\232\016>\333o\035>\247\337\203\275\003@\001\276m\006\354>\230\316\233=?\202o\276\355\212\031\276\242s\335\274\267C*>\027U\321>\257.\207=0\317\332\276E\037\003\277NFq>\325Y6\276G\267+\276\334w\276\27633\204\276: \342\276gw\311<\223\222\263\276s\367\334>]Dn>`%<?L\222\302\274\355Zn\276\025\254\316\276!>\247>\252\361\355\275\004\220\205\275\265\264\262>\030\251\215>\364;\007?{1\013?\354h\225=\375\010\037\277e\337 ?`-^\277yyg>*\027\000\277hV\312>\332\331\002?T\204\202?F\260\212<\324E\305>T\2671?\312k\215\2748U\331\276\3174k<\0307\301=\312\237I?\320\r\321;\216\236[>vI\347\275\0240\210\277\020\247J\277\236R\032\277h\003\n>\037[\304\276o\033P?C\200r\276\346\204n>\205\245;?\217Y\004?\217C\307>\336?\007?&k\237\275\216Qm?hq\035>7\314\376\276\2468.>\350\205\230>\t\227\351>|\215\336>A\250\364\276q\271\267>\n\001\306\273\325/M\277\366\026L?/\354\332>\232\255r\276)\006-\277r\334\304>\023\016\370>\266\212\027\275u\304\344\2742\341\022?\364\027\302>\371\243\270>7k\361>ja)>\204\211\001?|\013\210>XR\360\2763\007+\275)u\215=L\220\255>\245J\010?\030\324\274\275\221\373\202>N\362\271>\276\314\374\276\367\365\035>ypq>\020\222\356\276j\323\353\276\260\261\013>\337\324\375>\350\374^?\2318m\277\371l\216?\n\352F\277\2109e?\254\332P?\313co?\345H\253?\347=G?=x\207?\273\345\255?\225\212a\277\340\177\216?\370\255&\276\022\001H?\3715g?\2376\243?\022v\237\277\te\022\277Y\341]\277\331\031I\277\364\231\214?\375\245W?\323\001v?.]\363\276\233\237\035>\016\\_\276e\236\301\275G\033\322\276pc\251\275\'\324t\273DWn=\n\326G\276\206c\316>I\004\265\275\375?\322>\033\370r=\365?m\276Z\224\236\276\360\275\236>wQ#\273\024\215\035\276\364g%>j2\014>\332\357\021?\215;\372>G`\2349\245aS\277\272\357\220\276fdS\275\256\261\251\275Ew\211=\231\206\211\276\245G\242\274\026\351&\276AV\337=\271\210\223\276\326\357C>\\\260=?\373f\271>\373y\006\275Z\351;\276\005\017#\276_\215]>\265$#>\327\315\272\275\377\221?>o\376\205\275\222\000\023?\035\'\325>\227\267\306<\226\236`\276\205\005\007\276\353SB\276o\2102?\214NB?<\021C?\310\225_?\005\266\364\276\0168,