node {
  name: "input_1"
  op: "Placeholder"
  attr {
    key: "dtype"
    value {
      type: DT_FLOAT
    }
  }
  attr {
    key: "shape"
    value {
      shape {
        dim {
          size: -1
        }
        dim {
          size: 480
        }
        dim {
          size: 640
        }
        dim {
          size: 1
        }
      }
    }
  }
}
node {
  name: "Conv1_pad/Pad/paddings"
  op: "Const"
  attr {
    key: "dtype"
    value {
      type: DT_INT32
    }
  }
  attr {
    key: "value"
    value {
      tensor {
        dtype: DT_INT32
        tensor_shape {
          dim {
            size: 4
          }
          dim {
            size: 2
          }
        }
        tensor_content: "\000\000\000\000\000\000\000\000\000\000\000\000\001\000\000\000\000\000\000\000\001\000\000\000\000\000\000\000\000\000\000\000"
      }
    }
  }
}
node {
  name: "Conv1_pad/Pad"
  op: "Pad"
  input: "input_1"
  input: "Conv1_pad/Pad/paddings"
  attr {
    key: "T"
    value {
      type: DT_FLOAT
    }
  }
  attr {
    key: "Tpaddings"
    value {
      type: DT_INT32
    }
  }
}
node {
  name: "Conv1/kernel"
  op: "Const"
  attr {
    key: "dtype"
    value {
      type: DT_FLOAT
    }
  }
  attr {
    key: "value"
    value {
      tensor {
        dtype: DT_FLOAT
        tensor_shape {
          dim {
            size: 3
          }
          dim {
            size: 3
          }
          dim {
            size: 1
          }
          dim {
            size: 32
          }
        }
        tensor_content: "\001\373\202\275\227\212\006>\020\312U\274(\265\232<\342\303\331=\342E\n\275\350\304\217<\320\367\014\276\370)\252<P\026P<\245\257\273\275\264\347\231\274\004r\327\275$\377\030=0C\020\276\215\336\010>\364\275\223\274jc\255\275\264O\340\274\216F\325=(\350\220<\222{\021\275n\201\343=\361~\n\276H\322\\\275@\336:;\250sZ=V\337\260=\2201n\274H\227\267\275\210\353F=\216\205\351\275\330\025\200\274\020\023-<|sj=:\260\r\275\004N\270=g\036,>U\005\321\275\370\223U\275a\025\355\275X\035\202\275\300\350C\274\240\030\376\273V\235\206=h\2679\275\223\233\000\276\333\373\201\275\000\254\25198\334\275<\360\262k=\033\340\233\275\350\215\217\275\306\006\374=\352X\204=\340\360\001\274+\220\230\275`%b\274\3566\306\275h<d=r?\321\275J\t\264=$\341\322\2750\335\016\274XI\254<\000r\314:J*\330\275l\347\375\274\214\245\225\274\003\316e\275\346\364\276=D\017\326\275\006`\305=\200&\312:\246\362\347=\270\244\275\274:8\006\276\000\363\002<\227^\213\275\265\374\201\275\270\216R=\\\276\332\275\270\t\320=\260I\023\275$\376\356\275\321Q\272\275`R\307;\256\020\341\275\262\305\352\275`\352\212\2740\376x\275f^\006\276\340P\340;\323s\005>+\367\314\275\032\314\271=7h\202\275*\004\026\275\266\362\205= \321\"=@\016\016\275,N\320>h\035\364<\310\223\241=\013\356\004\276\306\325\250\275\300\320\346\2730\352C=\316{\325\275\250\220\334\274\345\302\r\276\000\336 <\020o\245\275,\313,=\024Q\217\274B\316\023\275iz\372\275i\272\t>6)\363=\">\274=\210b\260=h\320K=\'\365\006\276pM\016=`\347\301<|\326\016\276\374\245\254\275$\317J\2752o+\275\004w\003\276\2263\305\275D\261C\275\340a\314\274O\201\014?\030\215\375<\320\004\313\275\370uf=\234|I=\306\244\275\275L\027\265\274\236+\273=\242\032\375=\212\255\340=`\340\236<\004\256\001\275jF\017\276\352\322\365=~\330\221=\330\243O\275(\355\032=\240\010\200=\377\376\t\276|\205\244\275\240\007\200\274\370\366U=\224\033\327=$\"I=\n\262L\275\340\r\372<\264\337(\275P \032\275\366A\234=8\2019=\200\254*\273-g\353\275\200\331t>f\227\256\275\224^\325=\034]\247\274D\r\261=8\363\251<`\310[=\000\227\262\273*\232\211=\302\026\013\276\022\352L\275\260\241\010<\025\246\374\275\3051\221\275y\202\t>\310\014\027\275\300\254N\274P\224\004\275\014\227!=\000\"$<\250a\231\2758\336\\=\330\022\t=\200\367G;\356\277 \275\230\016\217=\200v\020\274\022\206\243\275\330\316\306<\360\254b\275\320D\326=\354\376_=\363\376\302>\332^\356=,\325v=\220\341\263=\024m\013=\353\350\371\275\376\226\361\275:iz\275\326\207u\275\262\t\206=BB\253=\270^\360<\350\207\227\275(\243s=\316l\353=\002d\264=H\203\276=d\334\202=\370H\370\274\272\032\020\276v\277\333=\377\022\002>\376\204\257\275\304\333q= \033\262\2736\204\226\275\270\3110=\366I~\275@\244\265\275@\277\226=\237J\001\276\000=\262\274C0\002?0\335\016\274\202\363\203=`\270\033\275\250R\325<\260\376|<`\230\226<\002\367\205\275<9`=\000J\240\271W\252\335\275j_\347=Pn\246<\212\262\350\275\206\271\350=\334\335\327=*5\330\2750S><\034\216H=\323\240\375\275\374Y\202=\".\306=\"\346\345\275\2668\243\275\370n\361\274\330]\316\275\333u\332\275\032\002\325\275r\275\215=\230\271h\275\'U\007\276(\363\322=\217\233\207>B\352?\275t6\210\275\360\'!\275B\210\220=\322X\250=\302?\335=\300M6=\350\370\014=4\367\020\276\264\201\300\275\200\314\322;\000\353\025\274b\374\304\275\300y\260=T|\206\275\300<\244<`/h=t]\244=\324\257\302\275N\026\301\275\320\220@<\300+\370<X\332E\275\261\330\013>\354\234\300=@\245M<"
      }
    }
  }
}
node {
  name: "Conv1/convolution"
  op: "Conv2D"
  input: "Conv1_pad/Pad"
  input: "Conv1/kernel"
  attr {
    key: "T"
    value {
      type: DT_FLOAT
    }
  }
  attr {
    key: "data_format"
    value {
      s: "NHWC"
    }
  }
  attr {
    key: "dilations"
    value {
      list {
        i: 1
        i: 1
        i: 1
        i: 1
      }
    }
  }
  attr {
    key: "padding"
    value {
      s: "VALID"
    }
  }
  attr {
    key: "strides"
    value {
      list {
        i: 1
        i: 2
        i: 2
        i: 1
      }
    }
  }
  attr {
    key: "use_cudnn_on_gpu"
    value {
      b: true
    }
  }
}
node {
  name: "bn_Conv1/gamma"
  op: "Const"
  attr {
    key: "dtype"
    value {
      type: DT_FLOAT
    }
  }
  attr {
    key: "value"
    value {
      tensor {
        dtype: DT_FLOAT
        tensor_shape {
          dim {
            size: 32
          }
        }
        tensor_content: "\000\000\200?\000\000\200?\000\000\200?\000\000\200?\000\000\200?\236\031\241?\000\000\200?\000\000\200?\000\000\200?\000\000\200?\000\000\200?\000\000\200?\000\000\200?\000\000\200?\000\000\200?\000\000\200?\000\000\200?\000\000\200?\000\000\200?\000\000\200?\000\000\200?\000\000\200?\000\000\200?\000\000\200?\000\000\200?\000\000\200?\000\000\200?\000\000\200?\000\000\200?\000\000\200?\000\000\200?\000\000\200?"
      }
    }
  }
}
node {
  name: "bn_Conv1/beta"
  op: "Const"
  attr {
    key: "dtype"
    value {
      type: DT_FLOAT
    }
  }
  attr {
    key: "value"
    value {
      tensor {
        dtype: DT_FLOAT
        tensor_shape {
          dim {
            size: 32
          }
        }
        tensor_content: "\000\000\000\000\000\000\000\000\000\000\000\000\000\000\000\000\000\000\000\000\232\317\265>\000\000\000\000\000\000\000\000\000\000\000\000\000\000\000\000\000\000\000\000\000\000\000\000\000\000\000\000\000\000\000\000\000\000\000\000\000\000\000\000\000\000\000\000\000\000\000\000\000\000\000\000\000\000\000\000\000\000\000\000\000\000\000\000\000\000\000\000\000\000\000\000\000\000\000\000\000\000\000\000\000\000\000\000\000\000\000\000\000\000\000\000\000\000\000\000\000\000\000\000\000\000\000\000"
      }
    }
  }
}
node {
  name: "bn_Conv1/moving_mean"
  op: "Const"
  attr {
    key: "dtype"
    value {
      type: DT_FLOAT
    }
  }
  attr {
    key: "value"
    value {
      tensor {
        dtype: DT_FLOAT
        tensor_shape {
          dim {
            size: 32
          }
        }
        tensor_content: "Wk\314=}GR\274\253e\231<\022{>=Z\245\375\274X\261\r\277\016\006%\274#K\014=I\312\231<\002\221\360\274\006D\263<\226K\005\274\324\336w=\346\3440\275`\216\003>\344\316\353<\275\341\211\274\314\026\317=\373&u\273\364\260\330\275\275eg=e\001\031\275\372\365\324\275\3129\023=\345\213\005>u\200\016\273\322+\274\274pm\231\273 \311\272<D\362\203:\234\311I=R\257)="
      }
    }
  }
}
node {
  name: "bn_Conv1/moving_variance"
  op: "Const"
  attr {
    key: "dtype"
    value {
      type: DT_FLOAT
    }
  }
  attr {
    key: "value"
    value {
      tensor {
        dtype: DT_FLOAT
        tensor_shape {
          dim {
            size: 32
          }
        }
        tensor_content: "\037\342\253=}\322\361:u\340N;#]\236<\303\220\t<\006M%@+\036\244:2\014/<\255wL;\200\314\002<\373N\244;\217+\212:\223n\374<\3677\203<fl\016>\232D\n<3\3209;\2565\260=\367\353\202:o\035\303=c\256\343<m\263E<\326)\271=q\335<<\246\035\023>\305E{:^\202\267;\350\255z:\004\350\225;q\314\303:\360Q\251<1?p<"
      }
    }
  }
}
node {
  name: "bn_Conv1/FusedBatchNorm_1"
  op: "FusedBatchNorm"
  input: "Conv1/convolution"
  input: "bn_Conv1/gamma"
  input: "bn_Conv1/beta"
  input: "bn_Conv1/moving_mean"
  input: "bn_Conv1/moving_variance"
  attr {
    key: "T"
    value {
      type: DT_FLOAT
    }
  }
  attr {
    key: "data_format"
    value {
      s: "NHWC"
    }
  }
  attr {
    key: "epsilon"
    value {
      f: 0.0010000000475
    }
  }
  attr {
    key: "is_training"
    value {
      b: false
    }
  }
}
node {
  name: "Conv1_relu/Relu6"
  op: "Relu6"
  input: "bn_Conv1/FusedBatchNorm_1"
  attr {
    key: "T"
    value {
      type: DT_FLOAT
    }
  }
}
node {
  name: "expanded_conv_depthwise/depthwise_kernel"
  op: "Const"
  attr {
    key: "dtype"
    value {
      type: DT_FLOAT
    }
  }
  attr {
    key: "value"
    value {
      tensor {
        dtype: DT_FLOAT
        tensor_shape {
          dim {
            size: 3
          }
          dim {
            size: 3
          }
          dim {
            size: 32
          }
          dim {
            size: 1
          }
        }
        tensor_content: "Rrp\275\242&\332\275\310\275\267=X\373\227<h\002\t\276\036\315\277>P\205\274<\014\263\350\274\370\254\r\276\214\305==\260\222D=\264\375.\275(\030\304<P\254X<Js\"\275\330\205\331\275\032\354\316\275@;\316\274\316t\006\276 \016\236;\002&\254=\\\\\254\275FE\347=\330\215\002\275\006y\237\2757\350\276\275 \024\032<*\236\322\2758?\327\275\302\232\360=\025\324\t>\340\315\316<\334\361\247=f\240\350\275\225G\013\276\340(z=\330\006\"\275\233\307\221>\275(\001>\320\000D<\370\245\303<\336\204\231=\340\266\322\275\266\250\267=\206\311\032\275\341\213\244\275E\333\230\275\n\200\313=\364\337E=\004\305\320\275O4\324\275\240\313L=\325#\234\275U$\315\275@\n\035\274J\3243\275\360\014\355\275\310a\321<c\035\r\276\344\244\203=\220z,< \232\005\275\364\300\362\274\252\216\005\276\345\240\010>\2449\021\2765\336\316\275\374\262\037=xzZ=\342f\022?\200\303I;\224\305\312\275B3\272\275\346\2110\275P\370\260<\314\003b\275`S\304;\"\240\215\275\2523\244=\242\177\315=@\374\276\274\320\211R=tA\n\275\222\231u\275\242\\`\275\220\001h\275CV\003>\307S\010\276\274\031\034=\360\361\226=\264\240N=t\220\370\274p\362\307\275H\330\351<s\277\016>\031U\r\276\340\356\324\274H\367<=20]\275\354H\226=\r2\274\275\335\311\357\276\024e\242\274@~h=\227\370\314\275\370AC=\034p\035=P\213\273=\2007\235\272\036^*\275D\017 =B\223\362= \263\246;\222\031\013\2754#C\275\340\352\357<\326\354\303\275\032dj\275\352\270\373=\324\237\241\275\375*\001>\231.\005>nl\205=\254\313\004=\205O\016>\030\311J=\000\261\025;`\271q<\350W\234=:\370\255\275<\006\344\275\032\263\263\275:\035\272=^\236\t\277Z\243\177\275}\275\251\275\345\340\214\2758\243\334=\240M`\274\0008\324\272\026\325\257\275\376\355,\275\366\241\373=`\370s=\n\206\346=\004\023\331\275\223B\322\275\220q|\274pz~<\242J\235=\000F\274\272\010\320\266\275\257\025\006>\204\226\207=B{\253=@\244\260=`\276\352\275\236m\340=L1\265\274H\356M=0\322\303\275\372\324\325\275Xk\230<b3\317=,\315\213\275\343\033>>1\277\017>R\317\345=s3\017>\354\346\031=\320\230\036=P\301\335<\256N\024\275\246<Z\275\3019\337\275(\264\206\274bo\003\276N\333\343=\225\t\330\275\240\350\266\273<\231e=\356P\215=rz\270\275x+\327<\200\340\033=+\273\202\275\263}\000\276\200\214v<:\022\271\275P[><\331Q\203\275\321,\021>\330_\333\275\232\346\303\275\272o+\275~\264\341=\350\260\215\275\r\312Z\277\374\264\001\276n\251\304=<\002\205\275\230-\276<\320\244\352\274\356L\365=H\340\205=\330\273\310\275\312\337\213\275\312#\252\275\240\3628=D\251\353\275#\317\016>j\236\373=\3712\002>\204\305;\275K\034\014>H\023\222\275\216\303\236=4\324\\=<\301D=\030\200q=\000R\254\272\376\236\264\275\014;\303\275\205\007\013>\334*\016\275\222\206+\275e\275\377\275@t*\273\013!\210\275\021\005\275\276\370<\370<`\342*<\274\023F=\230\267==~\253\367=\270\037\332=\266j<\275,a =\333\003\377\275\026\351\300\275\021\203\n>\036\376\344\275\030\210\271\275\315Y\361\275\370\242\314\274lF\256=eu\017>\013l\013>\000\302F\272r\262\212=p\353\353\274\274\376\355\274\002\265\240=\356J\304=\010\013\234=\262\r7\275\326\273\367=\200\211\327\275\302\254\313=`u\302<\331*\001>\013&B>\2645\255=\335\032\000\276v\262\202=X\030\216=\370\315\242\275\262g)\275\t\206\007>d\353\264=\310\300\337<\370\001\232=\340\374Y\274\300\277\342\273\200\332\002<\030\214\241=xp\350<0\224,\274T\034\327\275\317\r\246\275,\237\375\2750#\300\274\3502\211\274\232^\004\276t\315\325\274\253\231\014>.\336\341=`\344\006="
      }
    }
  }
}
node {
  name: "expanded_conv_depthwise/depthwise"
  op: "DepthwiseConv2dNative"
  input: "Conv1_relu/Relu6"
  input: "expanded_conv_depthwise/depthwise_kernel"
  attr {
    key: "T"
    value {
      type: DT_FLOAT
    }
  }
  attr {
    key: "data_format"
    value {
      s: "NHWC"
    }
  }
  attr {
    key: "dilations"
    value {
      list {
        i: 1
        i: 1
        i: 1
        i: 1
      }
    }
  }
  attr {
    key: "padding"
    value {
      s: "SAME"
    }
  }
  attr {
    key: "strides"
    value {
      list {
        i: 1
        i: 1
        i: 1
        i: 1
      }
    }
  }
}
node {
  name: "expanded_conv_depthwise_BN/gamma"
  op: "Const"
  attr {
    key: "dtype"
    value {
      type: DT_FLOAT
    }
  }
  attr {
    key: "value"
    value {
      tensor {
        dtype: DT_FLOAT
        tensor_shape {
          dim {
            size: 32
          }
        }
        tensor_content: "\000\000\200?\000\000\200?\000\000\200?\000\000\200?\000\000\200?\353\264r@\000\000\200?\000\000\200?\000\000\200?\000\000\200?\000\000\200?\000\000\200?\000\000\200?\000\000\200?\000\000\200?\000\000\200?\000\000\200?\000\000\200?\000\000\200?\000\000\200?\000\000\200?\000\000\200?\000\000\200?\000\000\200?\000\000\200?\000\000\200?\000\000\200?\000\000\200?\000\000\200?\000\000\200?\000\000\200?\000\000\200?"
      }
    }
  }
}
node {
  name: "expanded_conv_depthwise_BN/beta"
  op: "Const"
  attr {
    key: "dtype"
    value {
      type: DT_FLOAT
    }
  }
  attr {
    key: "value"
    value {
      tensor {
        dtype: DT_FLOAT
        tensor_shape {
          dim {
            size: 32
          }
        }
        tensor_content: "\000\000\000\000\000\000\000\000\000\000\000\000\000\000\000\000\000\000\000\000\220\337\021@\000\000\000\000\000\000\000\000\000\000\000\000\000\000\000\000\000\000\000\000\000\000\000\000\000\000\000\000\000\000\000\000\000\000\000\000\000\000\000\000\000\000\000\000\000\000\000\000\000\000\000\000\000\000\000\000\000\000\000\000\000\000\000\000\000\000\000\000\000\000\000\000\000\000\000\000\000\000\000\000\000\000\000\000\000\000\000\000\000\000\000\000\000\000\000\000\000\000\000\000\000\000\000\000"
      }
    }
  }
}
node {
  name: "expanded_conv_depthwise_BN/moving_mean"
  op: "Const"
  attr {
    key: "dtype"
    value {
      type: DT_FLOAT
    }
  }
  attr {
    key: "value"
    value {
      tensor {
        dtype: DT_FLOAT
        tensor_shape {
          dim {
            size: 32
          }
        }
        tensor_content: "\300\017\037=l \204\2764\355\013\276\243\177\020>a\t\247\275\216\310\375\276*\261}=\242\242\230\274\330*\214\275\254J,>\250\244\200<\'<\255=|e\357;%\301\323\275\247b\177\275^\021\200=&\007\373<\"\233\024\276\020\274\300\275\037\003\031=\3733\315<\300\350R\275\361\203@>\322\270\030\276\217k%=\366m+=\266\036\244\274f\260\350\273I\263\245\275t\202\227=\3425\326=0\000\022="
      }
    }
  }
}
node {
  name: "expanded_conv_depthwise_BN/moving_variance"
  op: "Const"
  attr {
    key: "dtype"
    value {
      type: DT_FLOAT
    }
  }
  attr {
    key: "value"
    value {
      tensor {
        dtype: DT_FLOAT
        tensor_shape {
          dim {
            size: 32
          }
        }
        tensor_content: "&\312P;\302\254\333=D\344\273<j?\275<\340cj<t\262\037?\000Z3<\035\022\006; \"\367;\322\343T=J\007\010;\350\232p<\256\335\004:\276\374\252<\207\255\242;\300\343\327;;\323\205;\032n\326<v\275\251<H\264F;}0\315:\222\026\327;\014\275\216=A\202\330<\270\367P;/\360\013<\377\025N;F\\\257;\021\237\023<\220\217\313<\220@^<\276\035n;"
      }
    }
  }
}
node {
  name: "expanded_conv_depthwise_BN/FusedBatchNorm_1"
  op: "FusedBatchNorm"
  input: "expanded_conv_depthwise/depthwise"
  input: "expanded_conv_depthwise_BN/gamma"
  input: "expanded_conv_depthwise_BN/beta"
  input: "expanded_conv_depthwise_BN/moving_mean"
  input: "expanded_conv_depthwise_BN/moving_variance"
  attr {
    key: "T"
    value {
      type: DT_FLOAT
    }
  }
  attr {
    key: "data_format"
    value {
      s: "NHWC"
    }
  }
  attr {
    key: "epsilon"
    value {
      f: 0.0010000000475
    }
  }
  attr {
    key: "is_training"
    value {
      b: false
    }
  }
}
node {
  name: "expanded_conv_depthwise_relu/Relu6"
  op: "Relu6"
  input: "expanded_conv_depthwise_BN/FusedBatchNorm_1"
  attr {
    key: "T"
    value {
      type: DT_FLOAT
    }
  }
}
node {
  name: "expanded_conv_project/kernel"
  op: "Const"
  attr {
    key: "dtype"
    value {
      type: DT_FLOAT
    }
  }
  attr {
    key: "value"
    value {
      tensor {
        dtype: DT_FLOAT
        tensor_shape {
          dim {
            size: 1
          }
          dim {
            size: 1
          }
          dim {
            size: 32
          }
          dim {
            size: 16
          }
        }
        tensor_content: "!x\213>\324\316\216=\226]\002>j-|\276\216\360+>\276%!>\350\363G\275\2265\013\276{\262\225>\004_\374=\000\363\207;wK\037\276\256\217j>g}g\276\000k\331\274m\334\203\276\245\022\023\2768\334\275\275\000c2=O\306\177>)-e\276j\236\325\276\344\021\210\275tv\231\275,\234\363=\352wp>j\302\026\275\272X\205\277F\203\206>\377,\260\276\266\316\334>s\022,=N\010[>\334Y3\277\006|i\276\032\177B\276\200\327|<\343\003\203>\024\370\003>\201\271\217>\343I\014\276\t\224l\276\374\250\363\275\240\243\232\276\263\244\230>\234\345\241=\361\230\213>;\201\226>\363\367\213>\317\026E\276@\371i\275\214\"\225\275\036T*>+\346\260>\345\363\r\276F%\207\2760_\010\2758\027g\275\355\240T\276\2666s>\317\255\251>\340\216\333<\222x\032\276\220\362\002>\303c\210>(\207\231\275\302m\227\276I\036\301>\370eM=\\\260\373=E\336\211>\377\025\242\276\342\014<>\242\213x>|5\377\275:\323\202\276\300W\336\275\370\006\314\275\342!\226\276*\200>>2U\244?\343\373\025?r4\271?\327l:>\013?\n?_\357\351\276\212\356\360?j\024\272\277\034\367\332\275\020L\271?\360|\243\275h\215*\300\202\027\247\277>\306\004\300\351\210I>s\nq?\241\021\245>\000L\336; \300{\274\360\351\246<\227\201\225\276&!y>m\177\235>\033\365\230>\340]\t>n\212\010>$\236\236\275D#\234\276\242%\353>\250\322\024\275\\\240A\276\240io=^{X>\020\274z=T\331\323\2757\252\254\2760\222\314=$d\366=\262\337r>\314\255\316\275j\263<\276|6\272\275hH\323=\300=\245\274p\205X\276\314\333\231\275\230\372\345\275\014P\241\275.sY>~\301O>V7c>\275?\224>\254\317\325=$:R\276\347\250C\276$\336t\276\212\224w>zK`\276p`\371\2742p\001>\002`\216\276\300\334\030\274\214\035\353=Z\201L>l\356\201\276Y\223\237>\'\251\263>\356\027[\276\340_K\274\367.\253>l\274F\276r\375X>\242w\364\275\247\325\251\276T\375\005>\017\340\253>\366\344*>\035\304V\276\3165*>\022\034\222\276(\346Y=D*\244=gE\264>\252\277}> $\306=#\274\200>\300M\350=\214\356\232=\014\231\230=\030R\336\275\275\006\211>\010\277>\275\007;\'\276q\023\232>\357b\016\276\316\337^>8w\204\276;\233l\276\326\316\016\276\363\320\252>^\016D>\246gP>\026\257%>\240\335\021\276\211u\207>;\341\206>D6\324=\\\035\362=\032kl>(\027\240\275\322\205\003>\244\017\265\275\217\325\256\2768\254\r\275\372\357_>M\223\256>\010g\223\276\262@q>6%F>8\304o\275\304\245%\276p7\'=\217\253\241>ZB\212\276\360\315\334\274\277SW\276\337M\200>\341w\210>\256\254\034>)x\251>\265F\250>\226\345t\276\362;.>\217z\267\275\263\323+\276@\374\236\273\317p\237>\232\303I>R\005\007>T\365\367= \331g=`\214\373\274<N\246\275\360\030\251=\202^(>p\365/=\034\331\247\275p\230\331<\330\346\256\275\361\024\256\276\000J\246;\240q\336\274\220\225\000>0\001\312<\265\r<\276F=m>F\310M>\323\216\226>\353\326\221>\322\315\261\276j\364G> v\'=\006\221Z>H\007\024=x\226\277=&\375s\276\372V->0<\374=\242.\177\276k\251\261\276t\246\313=x\n\262\276\320Ab\276\005\006\255>\313\272\251\276\356\223^>\264wV\276\272\214\r\276F\243\340\275%\211\251>`\255\013<@\341\360; @\217<\237\242\246>x\232\367\275\035\356\201\276<d\013>\033B\252\276\024\306\210=\256\320:\276s\342\205>\036\013\033\276Py&\275fP+>l\336\264\276\244V\224=\346\t\221\276#\332O\276\016wh\276\372\013O>s\222\252\276\236\224\241\276trP\276YUf\276\275v\234>&(?>\210\333\207\275\250\343=\2757\257\230>\030\362\036=F\\>>p\n\236\275\2609w\275\200\222\260\275\014\262x\277\231`\235>\210\274\003>\211\230\034\276\264\244\307=F\305\010>\3027\001>\302\270\001>\010\036\034\275\320\316\022\276\000\312\250\272hRM\276\014I\231\276\354\\\323\275B\255\224\276O\251\240>/\037\241\276\340Wu\276\361\210\212>V`1>\331\366\214>\230\373\003\276&\252F>\360[\273=\374\275K\276\024\317\326=\024\254\314=\247\250\263>\320\237\036=RF9>\000\233S=\321\355\261>\362t\342\275\002Zk>\017\232\230\276\362=\'>\202|\252\276p\350\330=p\330\231\275u\347\215\276\260\025\261\274$\225\267=S\362\211>\207z\223>`\r\267=t\310v\276\204\266\264\276\244\225\315=mH\250>.^k\276\030\035\177=\204T2>\352o\264\276uF\263>\256\252_>Y+\266\276\315\2350\276[\240\212>\035\332K\276z\\R>a#\246\276\240\246\263=\360\275\356\275H\355\035=\014\230\214=\000\234\371:\034\304\345=lJN\276\332\201\025>\230xk\275z\272\205\276\0259\212\276][\000\276\200Y\013<\215\311\220>\355\277\030\277|\357\324= \016\001>H\246=\276G\241\211>\221\221\263\277zjT\276\030p\340=\230\366\302\275]\341&\276!\3414\276E\357N\276:\376\343>\3739\236?\242^T?\235\314\264\276\260\220\271\274\000\370\257=\000\377u\273\334\274\004>\222^W>Z\335\204\276r\372d\276\302Pn>\212B\006>\000\300\2478`\rF\274`\007\261<\3245\220=T\362\276=\021\230\216\276\010\270\246\275\366.\037\276+\n\243>\014\237.\276\276\234I>F\024m>\020n\213\276A\233J\2766L8>\340\010\034<\224D\200= R\027\275\306\007\253\276<f\216\275\324E\n>00\204\274\274\361\204\277\366\207l\276\r.\023\276\265k#\276\344\242\206\276zE/>\307\305Y\276p\307\003\275\367,-\276\033\000`\276V\341)>\003\016\264\277Hz\r\2754\004o\276\366%p>\230\333\010\276\270\030\023=\205\037\211\276^d\034>\030\344&=\022\317\\>\014\245\311\275\274\370\313=\340Pz\274@c \274\220\345\024>#\200\230\276\244\356\210\276\220|\217\276j\267\226\276\312\\^>\351\035\260>}\002\004\276\366\232\214\276\350\341V=\200\354\017\274R%p>3\001\241\276f^|\276|*\227\276\n\024\332\276T N\276\010:\030?\347\006\010>F\0204>\330`\024>\304A\347\275v)\317?\033\310\264>J\350Z\276p\216\203<n\273\204\276\240\372N\276\010NF\275\340i\t>wE\233\276\350\242R=5\305\217\276\336\247\014>Ah\257>.&2>xB\036=\340\313\004<OC\257>0\017\212=\000\212\210\276s\354\246\276\312\375\252\276Kc\252>G\244\224>\322\370#\276]\304\211\276`\024\275\275L\014\315=\207\027\\\276\000\305x\273\200ZZ<\224h\345\275\342\327\354\275\315T\212\276\215y\024\276i\007j\276h\213\033=V\3158> \017\315\275&\233{\276\024U\270\275\215\226\202\276\260Z\333<<\202\307\275\334\304-\276b\"#>L\332\214\275\000\225G<\206\200C>\300\036\251\274"
      }
    }
  }
}
node {
  name: "expanded_conv_project/convolution"
  op: "Conv2D"
  input: "expanded_conv_depthwise_relu/Relu6"
  input: "expanded_conv_project/kernel"
  attr {
    key: "T"
    value {
      type: DT_FLOAT
    }
  }
  attr {
    key: "data_format"
    value {
      s: "NHWC"
    }
  }
  attr {
    key: "dilations"
    value {
      list {
        i: 1
        i: 1
        i: 1
        i: 1
      }
    }
  }
  attr {
    key: "padding"
    value {
      s: "SAME"
    }
  }
  attr {
    key: "strides"
    value {
      list {
        i: 1
        i: 1
        i: 1
        i: 1
      }
    }
  }
  attr {
    key: "use_cudnn_on_gpu"
    value {
      b: true
    }
  }
}
node {
  name: "expanded_conv_project_BN/gamma"
  op: "Const"
  attr {
    key: "dtype"
    value {
      type: DT_FLOAT
    }
  }
  attr {
    key: "value"
    value {
      tensor {
        dtype: DT_FLOAT
        tensor_shape {
          dim {
            size: 16
          }
        }
        tensor_content: "\000\000\200?\000\000\200?\000\000\200?\000\000\200?\000\000\200?\000\000\200?\000\000\200?\000\000\200?\000\000\200?\000\000\200?\000\000\200?\000\000\200?\000\000\200?\000\000\200?\000\000\200?\000\000\200?"
      }
    }
  }
}
node {
  name: "expanded_conv_project_BN/beta"
  op: "Const"
  attr {
    key: "dtype"
    value {
      type: DT_FLOAT
    }
  }
  attr {
    key: "value"
    value {
      tensor {
        dtype: DT_FLOAT
        tensor_shape {
          dim {
            size: 16
          }
        }
        tensor_content: "\000\000\000\000\000\000\000\000\000\000\000\000\000\000\000\000\000\000\000\000\000\000\000\000\000\000\000\000\000\000\000\000\000\000\000\000\000\000\000\000\000\000\000\000\000\000\000\000\000\000\000\000\000\000\000\000\000\000\000\000\000\000\000\000"
      }
    }
  }
}
node {
  name: "expanded_conv_project_BN/moving_mean"
  op: "Const"
  attr {
    key: "dtype"
    value {
      type: DT_FLOAT
    }
  }
  attr {
    key: "value"
    value {
      tensor {
        dtype: DT_FLOAT
        tensor_shape {
          dim {
            size: 16
          }
        }
        tensor_content: "?\343\213@u\210\235?\341 \221@\007{0?\330\344\313?\243f8\277c\270\226@\006\205\244\300\226\363\343\274\200\372\202@R\243\231\276\331-\025\301 \202Y\300\025\357\327\300\364\220\243?\377\351\202@"
      }
    }
  }
}
node {
  name: "expanded_conv_project_BN/moving_variance"
  op: "Const"
  attr {
    key: "dtype"
    value {
      type: DT_FLOAT
    }
  }
  attr {
    key: "value"
    value {
      tensor {
        dtype: DT_FLOAT
        tensor_shape {
          dim {
            size: 16
          }
        }
        tensor_content: ",\034\037A\310\310 @\271\275OA\210;\243>\347\3543@\022\311\340?\177V\234A\261fRA\20143>\375\232SA\341\2262?\262\305\005B\250\344\031A\037z\252A\335\323\003?\254\022w@"
      }
    }
  }
}
node {
  name: "expanded_conv_project_BN/FusedBatchNorm_1"
  op: "FusedBatchNorm"
  input: "expanded_conv_project/convolution"
  input: "expanded_conv_project_BN/gamma"
  input: "expanded_conv_project_BN/beta"
  input: "expanded_conv_project_BN/moving_mean"
  input: "expanded_conv_project_BN/moving_variance"
  attr {
    key: "T"
    value {
      type: DT_FLOAT
    }
  }
  attr {
    key: "data_format"
    value {
      s: "NHWC"
    }
  }
  attr {
    key: "epsilon"
    value {
      f: 0.0010000000475
    }
  }
  attr {
    key: "is_training"
    value {
      b: false
    }
  }
}
node {
  name: "block_1_expand/kernel"
  op: "Const"
  attr {
    key: "dtype"
    value {
      type: DT_FLOAT
    }
  }
  attr {
    key: "value"
    value {
      tensor {
        dtype: DT_FLOAT
        tensor_shape {
          dim {
            size: 1
          }
          dim {
            size: 1
          }
          dim {
            size: 16
          }
          dim {
            size: 96
          }
        }
        tensor_content: "\321\022a\277\255\307\371\275\020\247K=\331\313~\276\263\232\310=\250\242\034\275\234\223\034>\263\033\270> yd<\332\335\342\275\020<\013@<D\371\276\260\006\036=\251z\240=$\376\231\275z\220\025>\\\326+?\324\035\317=\326\204q?@\355P\276_-\316\277\245\243\260>#\235@\276\3254\262\277\255\236\r@\016\340(\276\327\342%?\3101\316\275\266g\215\276\035\213\374>L\364b\275\036\231\006\276\227p\014\277\202\304\317\275\273a\010\277\360\234\t\300\'K\365>9\246d\276\356\313\000>\324X\301=\324Yy\277\020\r\315<H#\266=\0070\230<\333p\275\276o0\014\276\375\202\330>T\361\245\276\3613\243>\300\323C\274$\313!?\260\240\262\275\224=\226=T\310\177>\234zH>\2520\207=@\362\224=\\\275k\275bW\232>\323{\216\275x\027S\277\037+\236\277\350\246l=\261\024E\276\346=U>!*\332\275,\310e\277\2602\003>\022d\267\277\201\310m\274lK`>\224\037\023>\310\342\366>NB\305\275d\270\221=X\377(>\340R.?U\327\357\276x\020R>\310\023\276=x\\R\277\322q\231?dL\013\276\226\302\010?0\326\342\275\326\301\330>\377\230\205?\316j\323\276\322e\317\277\233H+\276\0144\245=\000^\177:\256\210?\276\334\205\376\275\364Z\202=&H\333\275{\373\036\277`\321)\276*\337F\276\336*\250\274#t?\276\260\221\356=\260\251{=\305\337\022?\003\371T\276|\242+\277<\224\035@J\304\001\276Fv\004\276\346Kt=#\236!\277\246.\215:\352\313\300>=\266\250\277\2000\311=R\016U>\350Ye\277(Y\231\275\0009\014\275\233\021\226\277f\014\005@*~<\276H\345\013?\242Q\303\275\3477\005>\236\227\013\276\246\371A\276`L\323;\206\322\214=\326\tl>\362\251\"\277\002\225\320\277\006\2610?*&+>\016\302W>\241UP\277\370\010\213\276f\304\236\275\332j\276<8\014\330=Y+\024\277t\247=\275\362\036M=>m\340=\016{\277>\\,_>s\320\006?\236\227\004>\240N\202\277\272;\366\276\247\356\013=\214nN\276\240\255\025<\210H\260\274\311\014\227>\020\0364\277]\010\324\276\212\rU\277\262\302\366\274\230iN=\274\256\205\276\356\346\n>M24\277e\205\034\277)\315\033\277\031\311\203<:W\222\275\233^\370\275\212\025\317>8o3>\214c\212>\200\306u=\344\254b>(\266\212\276B\313d\276\255\341P?\331\244\252\276_\203\312?\312\345B>\010\240(?\202/\001\276\200\221\332\275\274\375\247?RH\376\275x\025\243\2774\203\013\276\251X\336>\300$\t<\"\007\013\275\335\037\313\273d\200\320=\017\300\305\276\251%C\277\226<D\277\3116\n\277\346B\227>\340\337I\276p}s\275\007\316\311>7bE?\232\275X\276\270^M\277\307\032\372?d$\352\276k\221g\276y\310\243>\222ub\276\216\022\024\277\272 \200?3A\326\277\364g\244=\300L\260\275j\006\270\277\347\322\013?\340\344\212\275bj\321\277\375\353\t@t)\327?\227*q?\2129\310\275\300\023_\275\202\240Y?\010\332\010\276\357\375\226\276\333\025\270\276\310*\220\274\240\240Y\276\300\331\314\275\036\273\014\276\002\237h\276|\323\265=\237\035o\277\377nA\277\022\3478>\365\3473>\354\253\311>,e\033\277@\214\256\274\313\310T>.\343\210\276-\253\210?\nM^?\247\024f?\221:%\276\260\014%\276\216\337\252>\236]\215>%@G>\363\264u\277ix\026\276P/\207>\002u\270>\002r\251\276\000!\206\2776pU\2768\267\313>M\223\320>z\2035\276\177\316X\276\257\355\177=\232Ao\277v\244\206\276\026.\005=\251\252\205?\266,-?\210\242\026\276\251\034T?\252\235l>\210\214!?I\230}>\235W\235\275\365\320-?\362\327I\276\345\365\242?\016\214\262\275aF\337>N\336W\276}:z?G\220\201?\221w\037\277\007\003\256\277\3543\014\276\261\343\320>r\017P>*\224\251\276\033\312\007?\361\t\371\275\315\232!>1\212A\277@\336\373\275L\373\002\276{|\205?\264K\276\275@\315K>\334V\257=\267\330;?\000QK\2767hc\276p\317\233>\000ne;p\326n=\272G\203?\244\230\023\2768\273\255=\260y\207\277\247\240k\275\322\'\324\277*0\333?\3653\353\276^GO\276.\206\356?!\311\021\277\010\371\217\277\336pC\2764`1\277\322b\244?)\3550\277\353\367\270?\317I\013@\300\032\262;}\215l?\236\323g\276L\t\206?\300\366v\275\322N\003@pn\t\276\330\256\224=\250[\026=\023\244\236=\370\266\225?m\263\355?\036X\233?\372V\205?\344@\032\276\341\247+\276j\036<\276\n\337\025\276\377\361d\277D(\324\277h\315\230=\325\316Q\276\316\177\007\300r\3235>\211\261P\275\0220\024>{\231\373\275}\205K\277\234t[\275\212\233\231\276\230\265O\275\343\371/\276\025U\363\276^\305\021>@\033\265<\310\036\333=bF\225\275{\220\r\277\350\373\351\276L `>`\n\243<\254f\306\277\367xF\276\370\316\360=\351\0048\276`\367\367\277p\016\224?ZEZ\276l\023\002\276I\"\254\276\274\2038?F\356\002\276le\243?.\266\010\300\356\247\016>vI/?\034\0136?_6\275\2764\233\313=\202\356\"\276\013\345\036\300\260\352\003@O\332\263\277\350\351\303=S\271\005\276H\350,\277\324\353->.]\r>A\323<>\006\304\266\275.\236W>\274\313^\275\020A\315>\240\236\220\273\212\360I\277\\\3602@\364\261\346=\273\364T\276U\346\340\275n\307z\276}]-\277\242\027\270?,\351\267\277HH->\\\344b>\326\207\222\277\353\324\245?V\230\334\275\256\251\261\277\034T\014@\\|b\275\033X\212?@\221w\275\002f`>\261pH=iO[\276\300\254\024=\325\0166\277\256l\013\276\254\2012\277\244\322F>\346\234\203\276\214l\252\275\000V\325<c\313c\277\220\340\007\277\034@9\276\353n\244\275\020m\037?\331\255\205\277X\"K=0\300T\276d\371\036>p&F>X\227Z=\214\233\313?\256\322A>\200<\317\275\234\317\203>MA\251\276\217\321\260<\214\224;\275\316\263\343\275R\330\017?\250M\n?\326\316\t\277\236\026d\277\210$\032\275?~\024\276\356\326@>0W\253<5dv\277NE\036\276\342g?\277yo\r\276\222\3027\276H\324\277\274\241c\236?:\'2>\374/\377=\376KO>X\355\252?\340k\207\276\024P@>4)\031\276\004q\273\277\364\321h>\250\371\250\274\261\354\013>@}\312\274\326^\032>\354\257+?\222\271\341\276\306\351\220\277\346\334O\276~\"D>\024,\374\275(<e\277\264\355\205?H\313%>X\210R\276q\333\'>\250\241.\275\223;^\276X:\261>_\2055\276p\264\035>\220L\206\274\237\272\337\276\224Q\210=\224\335\356=\237\211\314\277\224>\214\275\3548\014>\\\251\212\277\223\375K\277\033\227\270?n\246\342>\270\276\026=$\253W>BiS\276+:\263\276\035\327\230?\340\217\303=#\350\265\276}\001\242\2774j\\\276\031\253X>H\332\240\274\334\333\005?$\265\207=\370#^>\006\312\301?\ty\000\277\313\344\000\276\244\331\316=\260x\250=~\215\304\277DZ\013\276t\315\311=h\350@\275\240L\237>Pr\304\277\002[\372=Mk\003\276\026\342\023>\372\320e>\303\024\003>\006\256\360>\004\014\203=(.o\275\221\266\376>h\205\337=\002\331?>\366&\272\274\0064\317\275K\310\320=\234\013\317\275B\003?\276\010H`>\266\370\264\275\307@!?\272)a;\006,\"?\026c\307>\000)i=\3623Q>T\364V>,74\275Y\327\037\2755\202\203\277\340/2\274J\0252>\350\306\275=4\357\227=\235\324%\276 \224g=\003J\270?\260\231A?\020\325k\276\005\303C\276.\036n\277\200\034><\\U,>\313^\371\276 $\030\276\260\244\344<N\271\331\276\341^\007\276Ce\374;$\222\304=>j\257\275\340\243\r=(R\271\276\212\2659>\000r\271=p},\277\205~\261\276H@1\276\250\273&=\315\r\356>\316\376F>\220\361\210=\244\033\"\276K\\b?\264\317 \276\032,9\277\241\361\254??FB\276\370 \233=\305\347\002?Rq\337\276\030.\362\276\210\232O?]\244\272\277M<\001?fh\247?\321u\231\277R\251X?~\023\037\275\200\025\235\277y\311\266?A]\347\275Z\271f?~lO\276\256T\202\274\3319\235?\010U\252?T\265\324\275\215\200\373\275\000\3112\276}\220\017\277l\325)\276\375\013~?\\\001\251>\220\343\275<\302mC\277`\261\026\277\315$N?\277\037a?\317j|>{\223\250\276\320\306+<\013+ \276A\251Z\273\340\234\376<2\214_\276\226\221 ? \377\246\273\030\3230=\253},=\351\026\000=\027\003\006>X%\372\274\223\364\036\276j\222\241><\214\n\277\353\325\304\276\030\3231\277\010\360\225<\320<f>\'\2317\276\377\211\366\277\240\223l=\200~G\275\033\036\207\277a\221\357\275\320\255$\276\304X\024?\200\212;>$>1>\303\033+\276\3444K>\200r\001?\334\177\214>\330s\211=\200\262\034\276j;q\277\363MS\276@\323\220=/P|?\355\020\272\274([\353=\364\327\000?\237Y\330\276^d\250\277\210\373\254=\270E(=\240\336\271<C\007#?Q\310\001?Hp\032\275V\rW>^C\355>\314\314\240\275\244\031\201\275T\341\205\276Fl\017\276N\211-\276\340\332\036\274\244\371.\277\342N\014>\355I\004?\354\317\253\277\312\020d>\022vJ>R\264\307=St\261<%\360\334>>J\225\277\220\024\335?\265\267G\277\243M\203\277+\220\301?\350\247\033\277\323\210\037?\213\274\270?\003\246-\300\345\217\371\275>\363\233\277^_\242=\240<\210\276\223\353K\277\224\226\266=\243\274!>t \357>>7\003\276\271\022S?\332\273=>D?\200\276\"\3579\276\034C\245\277D\316\204?\tr??8\020\253=\233\240\021\277\n\346,\277Od@?\354)\017>\260z\254<\230\332\255\274\006\375\004\276\370\r\330\275v+\223\277\200\237G;\344N\316=\004\200\234\276\340\322\254\274\337\365F\2768\247\227\274\336\037\031?\024\272s\275\242_\254\276\356\034\202>\204\017b?\256 N>\312\277\025\276\302\215%\276\310\302\000\276\002\243g>\256\316\005\276\270u\216?\376\230+>\351\325^\276\306iB>p\nX\277\205\303M\276:\316\217\275\360\032\004=*:\217\277\352nU\275\370\272#>\340\377\267;\316\335\247?\270\233\363\274\340\210h\276\372z}=8Y9=69Y\276H\241\022\277\"\010i?q\265\257?\032\0030>\272\0028>Q\246g\276\240\303\315>\3172I\277R\276H>\354B~>\230\366\334\274\016\267\024\276h@\030>Y\322X=?\232u\277\221m/\276P\360}=\027\202U>\214r4\275\263H\230=T\276\'\277\307\372\035\277\372\265D>U\240Q>\247\203\017\277\364W\263?\372\017\302\275\205\214\030\277\202\377\311\275\026qK>\327\223_\276w\254\234\277\\\362)>\260\256\235\276v\331p\277n\226\254\277\320\332\202\276@\203\227;\tZ >\320\300\336\2762\267\335\275\241,\257?{\233\250\272\336\333\004\276\'\217\351\276\347A\003\276`J\367\276P\325\353\274Y\341\340\275p\036\215\277Y.\366\275d\217[>+E\237\277\367\032u\277\312N\341\276\030kO>\240\023\200?x\373e>2b\024\277\205_x\276\205\212b\276i\275\246?\"$\231\276\200\357G>{\352/=B\201z\275\276l\037>\236NH\276P\354\276=\345\365\313?E\217\003>\335\323\366\276\356F\220=R\005\223?J*0>\300(\367=\\\237N>e\003\t\275\241\367j\276<-\222>\307\203_\276\367\035#>X\030\326\276\366\037->\253\022Y\276\326\201!>\307\311\270\275\207\210\355>;e\356\276\014n\210=\251\003\231\276\305-\006\277@R\n\275\3420H\276\360\210\035<Z\206\343\275\021\025\001\276\357{g\276\317<\350\276\"iU>\210A/> z\030>\214\026x\277+\316t\2772\337\'>\202:=\276j\243\242\276,_\017>)\034\032\276\264I\240\274\335\337R\275\337+5\276\352\261\340>\222\376\036?\341<[\2763\203S\277n\377\030@\013!z\2760]\365=>\000\320>\215\321\t\277\310\223W\276\354\201S?\0370\274\277F4\005?\316\314B>4?\213\277\356\005\337>\264\315L>V\333w\277\361x\002@ss\277?\002\241Y?|\234\333=\221\341h>Q\225F\276\200\311\002>\310\305j\274=\nm>d\374\220\275\021\001)\277/\033\370\277\341qP>\344\372\300=\\\t\243\275W\2538\277\034\311+\277\202b\225\275\313>\\\276\373\246\363>\371\235\023\277\026p\r\276\0074\223>\237s\310\273d\226\263>zO^>EA.?\004\221\327\275}N\333\276\023\035\277\276B\177\377=\267\372\353<d\375m\275\270\362E=(x\234>\226\331\302\276F\'\260\276\253\222R\277#m\025\276P\312k\275\330\211\313=\250\303<=\304\323&>\322\311<>\205\023D\277I\355I=\250\306\220<\025\327s? m2?4\277P\275^\251\n?\2467\023>\205\033\001?\351\201L=%\255\\\275\253\031H?\257JU\277\324\224\314?\260\002\033>(Y\364>\0003\305\275\200\336>>\300\367\213?\303\345\216\275X0\226\277\024\303\330=u,\204>4\303]\276\364\330\201\276\214O\326>4\250\242\275_~\214<\251Pg?\344\205\262=\220\342\023>\220aC?\324 \017\275\212\324C>\302k\027\276]\275\365=\312;\000>H\2527?P\227\024\300\023#\353=\004\341\236\275Y^\265=r\233\006>\303\230\240? \367\001\277\226\206a\276\r\243\236\277@\225\271<e:\270=\010u\r\276\307\342\377\275\256\362z\274\236\200C=W\002`\276^\345\210\275\274|\261=\312_\376>W\233\214>\252\027\222\275b[y?8L\343\276\004\305\310\275\203\233\257\274]\314\230?\205&\342>\345\345f\276H&\221\275W\234\371>\301\267_?,j\356\275\213\t`\277\363\243\266\277\240AN\275\306CZ\276\220L\216=\0139\274\274\213\022v>8G\255=\350\332\213\277\354]\210=\000\245\001\272\262\035\206?(?\237=pO\204>\357\232V\276\302\201E>\"\350\202\275\362I\350>SH\261?C\336\231>\030\002-\276\231\333\226?\346\007B>z\310\216\275J\242\013>\204W\356>\251\031\371>\206Kg\276\211\203X\276\235\203\230\277De,\277\234c\"\276\322VE?\240\202O=\311M\302\277p\274k?\\\005;\277.\251i\276\226\315\337>k\3726\276\230\270\367=\225?S\277\344\335\220=TH\267\275\311\313\233\277\rd\\\276\2362\273\274\370&T=~\370#>\252|F>\317eV=zU6\277\233\007\013\276q\354/>\276\033\'?\024\374 \275\027\220\027? 5*\276%J4>\374\2464\276P\021\t\277R\331\037\277\332\016\245?\276<\225>\260\327\007\300?\224\271>.\233\213>i\243\235\275V+\324>V\036\020?\200@G\277\273!\301?\240}9\277\277\251\203\277\306\203\204?(\027\236\2768\017\021>uH\331?\365B\350\277\237>\234\277\275\256L\277\350B\246\276\032\221\032>1\325\354\276\037\255}\277\030\335\307\274Bi\371\276\372\263_\276\340&\264>PR\366\274^a*\276\204;\242=\034\226\374\276\215\300v?\007\322e?fbN\277\304\230\372\276\272\200\365\276\300\331\251\274`\331\345;\003\250\371\276\265[\003\275\017\002k\276UH>\277\343C=\277\234d\205=\260\213d<z\013\205>\274\304e>q|\r\276&\254J?\313.\230<\333\325\017\276I\235[\276\315\234\341>P\357\203?\307F\003\277\rsx\275\2305\236=\222\200\016>\303\355.?4\352\244;\0305q?C\214Z=\302\272\034\276\334o\334\275\242L\307\276\3500\211=+o\306\275\232\2138>\372\210$\277\247\216z>\332\2051=\033\267X\276|\261\010?M\025\221\277\216\262\241=\254\234@\277\336c\023?\234\334\303\276L\n\247\277\013\205\214\276ou\257?x1X=\3555\004\277\320%\010>\223\227\332=\336\322\330\276\364\344 ?D\375W=-\264F?Q{T\276\306\3508>\n\323\320\276\374\037F>\014A%>\037\200\364\275+J\327\276\3102\r\276E\350A?\243v\034\300^\233f?~9O>\263\010\303\276\310\350,=\372\346\023>)v\\\277\222\'\323?\325\231\365\276\306$\312\275AK\322?\242\034O\276,\226\276>\200V\367?\2401\350\277\274E\003\276I{(\277d3\033\275YqJ=\252\007\027\276 \033R\274.\320J>\034\331\031>\240\341d>\230pD>\2279\351?\202\016\\>\037\025\345\275\352\001\224\275\320R\203=<\241T?\0009f>\214Ke\275p\225J\2775\316\342>\322\333\263>\374A3\277n\354\246>h\363\233\277\244Z\302=_\'\304\276\027CE\276#\346\364\275\277\270 \277\341G\337\276\2578\245\276N\371Z>\006\205`>N\340\314\276\212`\016\277\'\026}>\254\017\266?\"\331\004\276[\243\272\276j\240\000>\230\353i=\213kh?\004\034\216\275\262\204\266?\016(\233\276\370L\221=\270\360\000=\207J[\276\3227\354\275\355-T\277z\316\323\275bj\303\276W#\242\276\030M/=\360\347*=\362\'(\276\320T\233\275\014L\027>F\300r\276\300\327$\273\320\262\000=\271$\237\277o\001\337>\371\361\276?.\007C>\310\330\025=\342\362\335\275\245\376\350>\372\213\210\276j\347i>\357\327\237\276fN\370>\200\r0>6\321\006>\303],\276\273\355\347<\320|\234\2752b]>\016\002C\277=$F\276\r1 ?\360\263\373\277\277\216\205=p{J\276\204\242\244<\33766?\3023\271>c\2143\277\241\236\306?_\371\277\276\370\202=\276\177=\235?\306\3433\2778P$\276\316}\267?1o\n\300\022\351\336\277\347\0358\277P\354l\276\207@\206=x\376T\275\220VS\275\004\257\026\276I\325\013\277\340Y\005=ah4?h\206\022=\241\027\312\276\314\356\260\275D\332;\276\036\243l?>M ?\316uD\276\336\313\375\276\0026\031\277\265-\277>\370\372\351=\366\323\337\275\005\026\213>\251\234\r\277`>\016<\303\030T\277\344r\001>z\260\313>\375\0267>\336,\224<%/b>\256\004\021>\304\331f\275\345\360\253\276\034\206\271\275\303\267\326>\203\272s?\244*m\276\244\314\245\276\242r\206\275\242,\320\275\002\373E\276u\351\350=f\324{?\324\335\222>\217-[\276r\232\265\277\024\337\356\276\360\3546\276\340\221\306\274\032\252Y\276\266\225J\277\315=\336\274\010\241\315<\027c\001\277p`\235?\270\010\t=^y\032\276\211k\366\275\314{M\276 \274\335\274r\276>\277\352Gy\275\023;\253?\200\000}\273\266\232h>8N\316=\262\365\325>P?\201\276p\313O\276Cf->6\304=>\240T\336\2734\362\357=^\342\023\273h9\013?Pkj>U\356\252\277i\302\203\276\354\367\t\275V\231o?\220B\207<4-\204>0\237|=\350\300N?\230\024\245?\334\t\214\275\225f\273\277\005\035S?\255\327\215\277\\\302\257=[\361\013?\231\036\313\277(\221\367=\014\024\264>{\325\325\276\246[c\276\327$\263\277P\253\204? \200P\277\264\007%\276vz%>(\252\357\275\360\016\220?E\205\256?u\1775?\360\n?\274L\005V\276\036\344\'>\332\"4\276\334)\267>6\225\365=\303\033??\016\231\001?\241\236\033>\232\007I?nP\037>\311\203C\277\315\224\013\276q\372s\273@#Q;\363\216\304\277\320\377\n> \311~?\026\002\027\274\352\2146?\213\337%?\"L\317<|\216K\275\234^o\277\030Z\275>\"0\254<^D\226>?\2302\277\227\024\236>\270\265\307=\227\006\343\275e\374\225?LYQ\2765E\233>\037_\335>P\306G<\030\367\326\277\222;\223\277\000\021\024=\334\360\212<D/i\275\003F\311\277\305\244\201>\351\330\311>\320x\271<\367\241B?\342\221B?\377An=\207i\234\277\217b^\2769\222m?\331\272\214\276\022\006\025?\031i\r?\374\r\377=\224/\217\277@dd=\342\212\331\274\362G\237\277\300\223\375;a\316Q?\005\312\312\277\364E\036>`\325\305\274\235pm?*\035\204\275\340V\032=\3245\243\275H\222,>&ZX>uAv\277G\223C?\234\020V\276\367\007)\276\216\301\271>\307D\306?+N\227\277\373\347\034>\304\334\024\275r)\025\277E\237\013@\367>G\277\351\273\365>?\371\031\2777\337B\277\201&\252?\216\324)>@a\271=H\020\223\276\316\226\"\277=\006\307?\314\340\204=]\245\\\277\232\317R\277a!\235?\025\200m>\320\\c\275\021\256\004@\257\350.\276\000\214p\271\323&\340\277d\362\310\277.\000/@\241\327-?=}\323>\350\t\302>\030\262\253=\227\201\220\276\177g\275\277\263\234\271? ma\274\013H\345\276\021\314l\276t%\237?\213\372\233?\225\022\323?\326\213\311?\020\2440\276\246[!\277^\253\304\276:wV?FDX\277\354\014z\277#\240:\277\244\322\002?2e\005>x\320\023=W\271-\277Z`\352?\220!Y\2775\030\014@:\007\\>m\371\226\277\233\270\262\276`Y\231\275\365\333\226?\350\320g=,\002\311\277\255\231\246>Oe\324>\333\216\247\2760\177z\277\310r\022\276\017@\232?5\353\262>:\234k>|\267\375=X>\t?\377\206a\277\004k8\277>\3307>\260~{\275\220DQ\274\210\333Y?^~\360\276\n?\330\275\250\316\323?"
      }
    }
  }
}
node {
  name: "block_1_expand/convolution"
  op: "Conv2D"
  input: "expanded_conv_project_BN/FusedBatchNorm_1"
  input: "block_1_expand/kernel"
  attr {
    key: "T"
    value {
      type: DT_FLOAT
    }
  }
  attr {
    key: "data_format"
    value {
      s: "NHWC"
    }
  }
  attr {
    key: "dilations"
    value {
      list {
        i: 1
        i: 1
        i: 1
        i: 1
      }
    }
  }
  attr {
    key: "padding"
    value {
      s: "SAME"
    }
  }
  attr {
    key: "strides"
    value {
      list {
        i: 1
        i: 1
        i: 1
        i: 1
      }
    }
  }
  attr {
    key: "use_cudnn_on_gpu"
    value {
      b: true
    }
  }
}
node {
  name: "block_1_expand_BN/gamma"
  op: "Const"
  attr {
    key: "dtype"
    value {
      type: DT_FLOAT
    }
  }
  attr {
    key: "value"
    value {
      tensor {
        dtype: DT_FLOAT
        tensor_shape {
          dim {
            size: 96
          }
        }
        tensor_content: "\2318\314?\000\000\200?\000\000\200?\r\301\340?\361\247\210?\000\000\200?TH\350?*=\321?\000\000\200?\234\250\377?G\'\206@\033Y\335?\000\000\200?\326\032\315?\205\321\033@\365\352\362?m\250\347?\315\366\016@F\"\002@\000\000\200?\204\210\003@\360\361\013@%\220\003@\021\022\027@&Cb@\3653+@\241\352\327?\000\000\200?\260\235\252?L\376\t@\000\000\200?\300w\365?\025\252?@$\2035@\260\350\336?\231\t9@zp\017@\000\000\200?\000\000\200?J\007\377?\265\263\336?m\374O@=nJ@\261\356\014@;8\341?W\213\340?m\211\353?\371<\222?\014\336\362?\233\300\333?\r#\366?\000\000\200?\206\311\"@\244\3635@\263\334\375?\nJ\340?1\351\345?\372D\n@k\206\210?\021{\025@t\202\316?\254\331\357?.\203\r@\216\200\325?\000\000\200?B\335(@\242\206\006@\245\2731@\325\201\336?\342A\017@\000\000\200?\273g>@&\206\335?\000\000\200?c\274\325?\000\000\200?\033\257\036@z\"\010@\322^\372?\000\000\200?L\302?@\000\000\200?\323\355\266?;0\025@\000\000\200?\000\000\200?\366\337\372?d\325\355?\250\010\372?\000\000\200?\332\317\315? \222/@\375\376E@\316F\363?\000\000\200?\266\256\315?"
      }
    }
  }
}
node {
  name: "block_1_expand_BN/beta"
  op: "Const"
  attr {
    key: "dtype"
    value {
      type: DT_FLOAT
    }
  }
  attr {
    key: "value"
    value {
      tensor {
        dtype: DT_FLOAT
        tensor_shape {
          dim {
            size: 96
          }
        }
        tensor_content: "\000\000\000\000\000\000\000\000\000\000\000\000\366P\275<\000\000\000\000\000\000\000\000\000\000\000\000\207O\230>\000\000\000\000r\213\206>U\373^?\000\000\000\000j\247\260>\257\013\346>\000\000\000\000\000\000\000\000\000\000\000\000\366j\361>\254\246\033?\000\000\000\000\347\206\314>G\310\224>\000\000\000\000\370\213\312>\240+\344>\000\000\000\000\000\000\000\000\000\000\000\000\005\347\210\276\000\000\000\000\000\000\000\000\000\000\000\000\342\370k?\000\000\000\000\000\000\000\000\000\000\000\000\000\000\000\000\000\000\000\000\000\000\000\000\000\000\000\000\202\236B>\000\000\000\000_\210\036?\237d\006=ZK\030>\000\000\000\000\206B\376\274GK\326=\000\000\000\000\000\000\000\000\000\000\000\000\000\000\000\000\000\000\000\000\274!\336>\000\000\000\000\316\274\233=\000\000\000\000\000\000\000\000\000\000\000\000\000\000\000\000\375\260\n>`\271\255>J\024\275>\204\004\006\276\000\000\000\000\000\000\000\000\000\000\000\000\000\000\000\000\275\347M>\216\013\354>\000\000\000\000\000\000\000\000\236J\354>\000\000\000\000\000\000\000\000\000\000\000\000\305`\030?\337\242\352>\000\000\000\000\000\000\000\000\235\315\274?\000\000\000\000\000\000\000\000/^m>\000\000\000\000\000\000\000\000\214\363g>\313X\014?R\276\273>\000\000\000\000\000\000\000\000\000\000\000\000WfR?7s\302>\000\000\000\000\255\336\300="
      }
    }
  }
}
node {
  name: "block_1_expand_BN/moving_mean"
  op: "Const"
  attr {
    key: "dtype"
    value {
      type: DT_FLOAT
    }
  }
  attr {
    key: "value"
    value {
      tensor {
        dtype: DT_FLOAT
        tensor_shape {
          dim {
            size: 96
          }
        }
        tensor_content: "\257\006\037>\245m$=\010\2358=\231\302\005=o\207\331=7\352f<D\241\370\275_\302\336\275\363oQ=\366\352I>z<\353\276\205H\247=\256uI\274\203\323\211=\3015\225>iK\316\274\263\225\202\276\202r\224>0Z_\276\022n\243\274|\312|>\274\322&\276IG\250\275\361v\210>\335\315B\276\205\302\257\273\231\322P\276\263t\016=Y\227q\275\030O\203<\301\177\207\275\031\343\275\275\222\317\212<\013\246\013>\025\337\026>\227\224x>\210`\230=\325\3207\274\206ST\275\363\301O>\210 \351=\014\222\023>\333\306\r\275\024\376\010\276F\372\031>\365pr\274\346\362\370\275@y\254\275{\000<=\014[\213<\337\r\246\2765i\240\275\364\270F>\020\262P>\241\273\350=\324\333\002>>\370\370\273\227\351\317<\331\263\004\276\261\301!=\223\350\025>$PD>\221\025\363\275D\315\221=\n\243B<O\004\211\274\006\203\002>\221\372\006>\376?T>?@\016>[\237y\273fM\243\276\016\270C\276{\207 \275\262l\276=U\370\273\274\354\216\323\276\004\232==\020\033\306<Wb\266\275>\250\202>\353\363\344\275pM\036=;\233d\276\035Y\247=F\220\n=\314\274\207\276^\322\336<\311g\206>\332t\225</\257\315\275\\!\263=8\014\266=\3073\022\276\276\242\020\275\t[K>"
      }
    }
  }
}
node {
  name: "block_1_expand_BN/moving_variance"
  op: "Const"
  attr {
    key: "dtype"
    value {
      type: DT_FLOAT
    }
  }
  attr {
    key: "value"
    value {
      tensor {
        dtype: DT_FLOAT
        tensor_shape {
          dim {
            size: 96
          }
        }
        tensor_content: "a\350\222B\023x\341>&t!@\366L\271@A\244\275?\177)S>=2\222@\245\240.BB\013e@\342x\201B-\003\027D\026\274\373@\334\213\234?\031\" A\0139\016A\345\360eBz7\231B4\2613C\310\221\326A}\362;B\036\215,C\331\374\006B\236\332\200@*\004PC\"\366\373C!\"<B\301\345\215BX];@\374\275\221@\"v\020B\245G;A\300y\263A\354\263Q@\262\027s@\322\266\317A\355\235\223B\007\234;B\310\271Q>q\030\304@\255\177\217B\251J\244B\321\035\020B\031f\334AQ\010>B\203/\306AG|\223?\332V\214@\023\343\032A\032/\001Bn\0068@\004\267\205B\221}#@\306Q\226@\256\365\211@/\307\305@w\327\241@\252L\213@\341\265$@\010\030\363@R\316\027@\366d8B\263\330\340BL\033\014@XZH@\273y\201>\312\344\211@?u\357A\236\027\016@\233y\371BV\244\304@\335~z?\300\301\261A\025\235\nB\264\253\240>\270\004@A]-d?\234\017#B\020\027\201@\264\337\336?\353/\314@\n\351~B4\243HBA\375\270?\237\026(B\310\035\300@\231P\314@\1775\003C\3059)A\356\261=C\232.[?\273sn@Hr\317@+\223\335@\237\317\263A\275\245[?\331\340\264@"
      }
    }
  }
}
node {
  name: "block_1_expand_BN/FusedBatchNorm_1"
  op: "FusedBatchNorm"
  input: "block_1_expand/convolution"
  input: "block_1_expand_BN/gamma"
  input: "block_1_expand_BN/beta"
  input: "block_1_expand_BN/moving_mean"
  input: "block_1_expand_BN/moving_variance"
  attr {
    key: "T"
    value {
      type: DT_FLOAT
    }
  }
  attr {
    key: "data_format"
    value {
      s: "NHWC"
    }
  }
  attr {
    key: "epsilon"
    value {
      f: 0.0010000000475
    }
  }
  attr {
    key: "is_training"
    value {
      b: false
    }
  }
}
node {
  name: "block_1_expand_relu/Relu6"
  op: "Relu6"
  input: "block_1_expand_BN/FusedBatchNorm_1"
  attr {
    key: "T"
    value {
      type: DT_FLOAT
    }
  }
}
node {
  name: "block_1_pad/Pad/paddings"
  op: "Const"
  attr {
    key: "dtype"
    value {
      type: DT_INT32
    }
  }
  attr {
    key: "value"
    value {
      tensor {
        dtype: DT_INT32
        tensor_shape {
          dim {
            size: 4
          }
          dim {
            size: 2
          }
        }
        tensor_content: "\000\000\000\000\000\000\000\000\000\000\000\000\001\000\000\000\000\000\000\000\001\000\000\000\000\000\000\000\000\000\000\000"
      }
    }
  }
}
node {
  name: "block_1_pad/Pad"
  op: "Pad"
  input: "block_1_expand_relu/Relu6"
  input: "block_1_pad/Pad/paddings"
  attr {
    key: "T"
    value {
      type: DT_FLOAT
    }
  }
  attr {
    key: "Tpaddings"
    value {
      type: DT_INT32
    }
  }
}
node {
  name: "block_1_depthwise/depthwise_kernel"
  op: "Const"
  attr {
    key: "dtype"
    value {
      type: DT_FLOAT
    }
  }
  attr {
    key: "value"
    value {
      tensor {
        dtype: DT_FLOAT
        tensor_shape {
          dim {
            size: 3
          }
          dim {
            size: 3
          }
          dim {
            size: 96
          }
          dim {
            size: 1
          }
        }
        tensor_content: "\240\226p\277\235`\375?\325f\177?\020\230\220>\316\255\026\277R{\316\274\257xu?9J\024>\274/p=\274\0072\277`H\200\277\224\242\024\276!\337Y?\245\210\366>\004m\271?\305^~?KTu?2\240\216\277\230\211\201?or=\275\341B\201\277ad:?\036\314\200?\250R}\277U~\310=\365\311\307\275\232\0008?\326%\245=_\253\335>\035\250\027?@\n\363>\374\253\205?\345$\263\275\\P\334?\214\017B\277\360\235\225=\032\014\207?8\327\375<A\r{?\004\305~?f\001\211\277\236\316\354?\362Z\222\277\237v0\277\006R\370\274\347\024c?QP\272>\275\251\336\276\032#b?\222\216c?\363\364\206?>\227\233?\347\301\317?{\273\307?\351\374\213\276\005M\336=`\247u?@\217`=\235\316\273>\203\341O?\245TB\277\016\327\205\277\210`\010?G\366;\277\331c\036\276\240$\246=\0221 \275i\370\347?b\301b\277\312\255\'\277\335\002\362>.v\300\274\2026C?\257\270\n\275\367\326\357>\363\200\211?\207*\256?\265\211\266\276\251Q>\277@\033f?\260G7?\225Sr\277 \304\217\273\003$\366\276\354\ne=2R\335>\236w\337\276=I\301=\277\367p\277\360X\261<v\240\265>\244\306\355?)\323\036\277`J%?0J\277<\341\267\303\276+\3022\277\246\216\273?\302\237\203?\236`H\276/Ib>Pb\r\274\252uR?\2323\254>8))\274\377 \215\277R<|\277\327r \277\277Cc?\314\224 ?<\267\233?\033+z?\340\270\206?=\216\204\277\241r\211?\031#\r\275jDQ\277\013~\236?q\351n?y\214z\277OO\256\276Ld-\277E:A?da\322<^\326\323=*\344Q?\014\370\213?\206\273\215?\304\rM>\302`\274?\367\312\002\2774z4=Kb\231?\275\037a\275B\337\216?\367\224\237?\327/\271\276\374\220\355?\255d#\277\215$3\277e\374\024\277\271\016<?\253\2558>1\354\311\276%\252G?\033\264-?\n\244}?\207S\213?j\225\264?\211U\215?\216kO\277@\265[\276\372\366E?\334\025b\276\227\252f>^\275\331>\346Sa\277\351xi\277d\221\334=\376r>\277\352T0?\274g#=\000\210\235=33\312?.\244#\277:\320\037\277\227E\233>\214b\207\275\315\242L?\250h\227=\300F\007?M\322\220?\277\237\264?\004\177.\277\234\036h\277\200vi?\335\177P?\023-\232\277\210/\003<\240\033\354>\024\213m=\373\230 ?\255\177[\277p\306\302>MHd\2778OL=R}\020?}\266\200?&9s>:\337\025?dxq=h(\306\276\245WZ\276\207X\306?\'\"z?\267\226\212\2746yG\276\300xy<\365Z;?\313^\362<\240\305\345\273\241\345H\277\356\222\314\276 4L>\331!\216\275\020;\025?%\200\201?\215\024n?m\335K?\r{L\277\320zx?P0\242\274\024\217\002\277\002BJ?\362.b?\311\nk\274\236P\260\277\265b\204\277\2732:?\330^\253<\257\261\021>\370 N?\305M\206?\244\366\217?q\347\357=(S\323?=]\000\277\035B:\275D\214i?\370\013\035<\244\220\216?\252\326\220?\347\337\231\276}\342\322?=\347d=IJ\000\277d\255\"\2777|x?[Q3\277\223\034\222=\242\301\005?\254QJ?\220\345i?\014\322\223?\217\277\263?\216E\200?\337U}\277oy|\274\363\243Z?\022\326\013\275Gt\242>Y\232\200\276(\270\350\276\337\025\030\276\270^\316<\016S\342\276b\010\232?\241*\025\275Z\203\032=\312\005\345?\303\263\372\275\360;G\277\322\206m>\2406\241\273\022\002\031?\260\365\210=\257E%?\304\356%=da\245?L0\032\277\231\377R\277_vK?y\224\210?\007\233\310\276x\212a<N$B?\224\005~=\333\r\324>\332&\262\276\260fu>\225\2109\276hAn\274\3740\307>|\034~?\272\344\030?\247\350\026?\000\254\2719\210k\320\276\302]L\277\033k\372?\003^\212?^\202\027\277qi\276\276l\3458=\375\r\214?\037P\337:\200\024&\272\022R\247\276\264\216>\2771\215\372\276\204\004{?\371\337\275>8\362\276?\355+\200?qa\212?,6k\277\362\317\221?\360\"3<\254\373\177\277E\336}?\343\273y?b\251j\277E\320\n?\375\013\317>Rr[?\312Z\253\274\376\'\037>\205\330y?\227{n?\030~\210?{)\311>\251\354\361?j\336n\277\200\226\211\273\234\323\223?\200*U;\340\026\205?\\\303\212?N\323\216\277p\213\006@\205\355\006\2779v\241\276giS\276\251\036i?I\255\006?t\343\031\276\363\354\206?\337Kl?O\210\236?^K\242?Z\301\335?#\341\360?!F\205\277\2767#\277e\257\217?\314zl>\242\032\020?\307\000k?\326\253<\277\314\357U\277Q\2604?K,\234\277p\354/?\310/a\274\\H\201\274f]\324?\n7>\277\n0\242\277\351*q?\004\320\333<\213\337Q?\377\357\246\275\266w\007?\376t\261?\3436\276?3\233\203\277?\217t\277e\0100?P\237#<\316Ef\276\244\245\250<\367D\357\276H\366\255\274\373n\236?!c\341\276\275\007\t?\325\203v\277\324\212\236=>\312w?\306\262\355?\307\371\242\277\364\337\374>rZ\215=\246\255W\2775\357)\277\277o\346?\276w\220?\373!3\277\3729\333=\225\001*\275\216\360\215?\'\374\025\277\214`<=\237/!\277~F\n\277\213NW\276\030\030\215?\247\037\334>\354\321\351?H\235\211?J\351\213?$\037\211\277\017\221\227?\3254\327?\305\037y\277\357\351\213?\177c\245?\017\376\216\277N`\273=\222:\276\273\235\371Z?\274\272\343\274\033\010\310\276d(\334?\225`\010@Y\363\234?-\365\261\277C\312\006@,\247I\277\373\347^\275$\242\331?\334Bb=(z\211?\264Y\231?\351r\302\276\003[\031@\264\233\031?\204\307\221< BS\277\034Y0?7W\007>,eO\277\274\352\253?\006\364Y?\342\372\223?\227<\276?wk\337?\226w\331?o\017\300\277\022\250\251\277q4\211?l\352\241\277@\212\242>\367\216\010?\354\247\003\277\364\237]\277B|\017\277\353\311\231\276[\210\365?v\322o\275\0003\242\271\216\t\005@\256\334b\277\005i\215\277\316\242\226?H\204\253<\353\254r?\010%7</S\213?j\266\023\275\260\004\323?\255K\222\277\272>\233\277\223LZ?\200I\"<\272\004[\276\240\210*\274\214\331\364\274X\304\326\274\014\374T\275\231\267\315\276\227\033\323\276\242\207*\277\236\260\010=\036\037o?})\275?\201\252\017>\224\205=?\302\305z\275I\027\213\277-\327,\276\376\324\264?\366\276\221?\262\251\224\277\022\334\306=\344\267\001=n\004J?\235c?\2776\206\024=\001\207\337\276\024@\"\274q#\t?\277\026}?\002L\373\276&\241\235?\333\214\202?\260\364z?5zY\277d^v?\300\264R;L\374\320\276\006(0?5;\230?<7&\276\3662\204\277n\3167\276OLT?J\264\351\274\342\234\211\276\023\024\247?R\362\363?\350\311\215?,\351\025\275\310\252\342?ng?\277 \311\027;\007\032\256?\220\314\345;l\240\203?\2571\230?\242\271\343\275\013\211\n@\331\370\n?\335\3664>8\266\223\276?fJ?\203\357u\276_r\257\275\220\350i?\243\034K?\2364x?\336\361\257?\271y\261?\r\246\307>\001b\215\277k\240\345\276\366\315\\?\360\270\311>N\224\311>\032Ur\277\ne\"\277\245E\241\276\372\315\207\276I\354,>\021^d?\320\311\036=b|\204=\250\357\355?\304\323\222\275\t\273\010\277\301,v?<\321\263<%\336W?\222\225\224=ppf?\002\202\"=\266\213\273?Y\363\242\277\221\257N\277*\2123?\3348\030=\303\353m=Pc\010=\34116?\"\025\002\275Q\230\243?\300\215\371>R\242\007\277J\316\033\276\\\233/=Pz0?\3112\020?j\333\031?\234a&?\214\017)\275\314\265\203\276\224\300@\277cj\364?\221^\215?\024\307\\\276\261R\210\277\030\374\222=\321(L?\301\273\021;\350q\312<&\321j\276=\010\341>8\226\034\277\326\355]?\302_\300>\344E\266?\304\004\202?\320.\212?\035\tJ\277\023\213f?\214\027\251=\305\010\205\277\215\233-?a:\234?cjd\277j\337\252>\342\2555?\221\333@?B\330+=\226\310\244=|\360_?\257}[?\330k\211?\373\"!>\361\340\354?1\006}\277@\370t;\205c\214?\000\363\3339\007\261|?\316\212}?\'\224\216\277\320!\377?\0362\223\276qZ\273>(\265L=\214\377\200?C\000H?\034IQ=>\344\212?\352\324;?\255\013f?v\205\251?\362J\344?\275\266\231?\272\235\212\277\216\246&\277k\n\204?\347\320\310\276\252\034\357>QE\222?\037\351\273\276\341f\013\277\245\306a>\254\326\365<\326a@?\024\020]=\336#J\275\276J\240?x\362b\277\254;\235\277,ir?D\357\252<\020\270`? \220c=7\246#?\200do:\374\364\246?F\271&\277\215\270+\277_\007\002?\330t`\276\312r\363>\270\260\351\274\353\014\004\277\264\201\265<\363$\244?u\273\211\275L\351\215>\t\004M\277`\340\244\273\251\363\"?\225\245\366?\336\005\204\277\336E\202?8t\311<;\r \277>\204\355\276c\251\314?\\\213\207?k\275\217\277\3753\'>xwP=\334\200U?\251F+\277\002\246\017\275\272U\016\277\2415\035?\316\334\177>)\322S?\333\030\252>\'x\305?:^\201?\252\220\203?\234\r\203\277\257\004n?\362H\325?u\211\212\277 \004\253?X|\225?\004\225\211\277\330\352Y>!\303\037?^Ib?\356!\323\274\353\027\003\276\214\272\270?&\224\331?\336\354t?\351]T\277\274\037\361?\363\3402\277@q\032\273\340i\310?\002\212\242=\277\277{?\337\235y?\273X\t\277\211&\027@=\021C?\355v\004?4\014\320\276\204\006\026??L\262\275\231g\225\276\307\334\245?\336\016I?\314\023\202?q\210\240?\021\021\303?\205\342\222?\223:\251\277\333\004\365\276\017/L?d6\231=\030@\321>\263\222L?\363\n#\277\316~H\277\210Y\270\276\321\032\003\277z\213\246=@-R\274\370S\215\275\260\033\377?\r`!\277\250?\234\277=\246\215?\330\276,<\355\213E?\276do\275\252\007S?\302\336\221=\027\371\272?\241\017N\277\005\332Y\2772\206\n?\na\206\276\025\025\025?\2002\344\273P\352\202>H\230\260<l\347\316?hYK>Uh5\277`v\204\277\324\344\320<w\375>?\010F\314?\302\2043>\365\006l?\004\334\312<\310a\240\276\003\205\241\275Ad\300?\301\024\205?\362r\331\276\036\037\204<\000\275><\274\265!?\373\361\342\276\240\275\265\273\206\351N>\235\362\006?0\031\260>\310\256j?1\343\232\276\232\200\223?\223\220}?\257\021K?\305\032O\277\354cn?\262K\271?\217S\357\276\024\221\'?\277\215\211?\364g\256\276\235V\003\277\032Q\213>\377\235A?\210\031\027\277\313\004\360>\t\252\215?n\257\234?\325Q\211?\314s\264>\277\246\362?A\234Y\277\2142\213\274\234\351\257?\300A\335;\007\205S?-\304:?l\336\361\276\301\010\363?\324\315\371>o\203\n?~\303`=\003\010\023?\204F/\277>\345\352\276\230\256r?\307\363+?\305AL?\352R\237?\022>\242?D\r_?\326Be\277=!\000\277Q?V?=E\014?\026C\242>\245o\262\276a\343\225\276\205\306\310\276y\322d\277\327T?<=iy?\306\323\250\275\\A\023=^\225\267?\346(\251\275\234\352f\277M\272J?\300`*;\321\017\013?\350\214N\274-Bo?\272\245\233=\333\226\241?\024\3467\277\361\026m\277\3231\032?\262\206\200=\031b\n?@\000\037\273\351\3103?\236\352\302\274T_\224?>y\376>\032;\001\277\351\013\203\276\027\314~\2750\"\034?6Sn?|\224\277>\254\341*?\212T\004=-\251Q\276"
      }
    }
  }
}
node {
  name: "block_1_depthwise/depthwise"
  op: "DepthwiseConv2dNative"
  input: "block_1_pad/Pad"
  input: "block_1_depthwise/depthwise_kernel"
  attr {
    key: "T"
    value {
      type: DT_FLOAT
    }
  }
  attr {
    key: "data_format"
    value {
      s: "NHWC"
    }
  }
  attr {
    key: "dilations"
    value {
      list {
        i: 1
        i: 1
        i: 1
        i: 1
      }
    }
  }
  attr {
    key: "padding"
    value {
      s: "VALID"
    }
  }
  attr {
    key: "strides"
    value {
      list {
        i: 1
        i: 2
        i: 2
        i: 1
      }
    }
  }
}
node {
  name: "block_1_depthwise_BN/gamma"
  op: "Const"
  attr {
    key: "dtype"
    value {
      type: DT_FLOAT
    }
  }
  attr {
    key: "value"
    value {
      tensor {
        dtype: DT_FLOAT
        tensor_shape {
          dim {
            size: 96
          }
        }
        tensor_content: "\013\355\010@\234X-@\310\350\362?\325\010\035@3\001\304?\037g\023@:R\372?5\237\244?\357\364\014@\034\032\342?\001\3473@\305)\334?s\217\375?+\322\277?\0273\004@\272\031\373?f\016\373?\005\364\353?\315Y\006@\231d2@j\222\003@\315k\"@\007\026\030@\340\225\013@`\202\022@\033}\004@\013;\301?\001f\021@\000\306\320?\300\254\t@\366\350 @\223\373\r@\246DG@\265\346(@\362\347\270?s\373>@Q\211\034@\004\361\341?\372\262\r@\033\002\005@\326\r\370?A\215O@\350\264+@b!\002@\'\362\250?\022\364\337?4\373\002@\302r\321?\033\366\320?\211\001\310?\r\033\021@~>\026@\223\2660@\205\243L@\205\020\032@\312\336\r@ds\343?~m\351?\263\016\234?\225\213!@m\217\366?GT\375?F\004$@b9\327?\231\034\027@\300\3071@4\254\n@\244\0008@0A\346?<Q\002@\353\360\326?\3614F@\033\217\334?}a\r@\030\251\272?5\321\022@\203\2278@\357%\033@>\334\000@!\251\317?3\2323@\270\354\037@.R\350?\0369\031@\275\222H@\016\257\006@\323\006\347?oy\366?\216\274\354?Z\207\r@,\036\321?\031\272 @\351\'I@\007J\371?\305\017\005@.\232\n@"
      }
    }
  }
}
node {
  name: "block_1_depthwise_BN/beta"
  op: "Const"
  attr {
    key: "dtype"
    value {
      type: DT_FLOAT
    }
  }
  attr {
    key: "value"
    value {
      tensor {
        dtype: DT_FLOAT
        tensor_shape {
          dim {
            size: 96
          }
        }
        tensor_content: "\324# ?\000\000\000\000\000\000\000\000R\027X?\000\000\000\000\000\000\000\000\000\000\000\000\222\247\360>\000\000\000\000\000\000\000\000\000\000\000\000\000\000\000\000\270\271\013?\220\245O?\201\013\352?\311\316<?\251\0207?d\254\230>\251\3048?\000\000\000\000\234\320\367>o\335*?\000\000\000\000{\"\353>j\363\242>\000\000\000\000\253\342+?\000\000\000\000-\301:?\000\000\000\000\000\000\000\000\036<\336>\001\345$?ZI\327?\2062j=\000\000\000\000\342\303\204?\000\000\000\000s\363H?\303\306b?$\215\030?\2138\340?\003\366f>;\230.?\000\000\000\000\000\000\000\000\260\373\236>\352_\n?\271\232\212?\016\340??\327O8?\000\000\000\000v?\256?\340\306\217?\023\224\006?\000\006\034?\000\000\000\000\000\000\000\000\300\316\032?g\310??[\343\372>\3535\016?\353\003\217?=b\336>\000\000\000\000\000\000\000\000\000\000\000\000\220\257\313?Z\245\001?\207)\265>\000\000\000\000\000\000\000\000c{\037?\000\000\000\000<8I?\000\000\000\000R\0179?\311u\023?r4\350>W\026\023?\000\000\000\000\354\225\006?\000\000\000\000\275C#?\000\000\000\000\000\000\000\000\026R\023?\2357\002?\\\202\304>\000\000\000\000S\242\347>\000\000\000\000\201;\355=\000\000\000\000\000\000\000\000pV9?"
      }
    }
  }
}
node {
  name: "block_1_depthwise_BN/moving_mean"
  op: "Const"
  attr {
    key: "dtype"
    value {
      type: DT_FLOAT
    }
  }
  attr {
    key: "value"
    value {
      tensor {
        dtype: DT_FLOAT
        tensor_shape {
          dim {
            size: 96
          }
        }
        tensor_content: "\374\005g\3005e\344@Xh\214@\301\363(\300_T*\277\240\370D=\362\035\312@\310\353\340\277\024\332J=\021t\234\300ph\257\300\320\027#\277\223\313\215@\021?\377?\340\035TA\306&\362@u\303\344@\243\\)\301\322\0354A\341S\371?\206\305\003\301\305d\024Az\224\323@?;\004\301\325\335d\300-\2675\275\205u\253@YP#\276\026\000B>.\207\tA\253\305\200@\336o\373@\254\314\314\277=\030\204AO-\247\300s\371\':E\357 A\215m{=\017H\203@\246\203\016A\032B\232\300\270F\253A\361l\\\276\251\'\035\277\022\234\035\300MW\270@s\252\245>\3049\266\277\023V\355@\027\227\254@\247\t\370@\263\362\206@r\233\200A\035_%A\274i\312\3001\313%\300\375\217\336@!\3617\277\345&\315?\307\021\t@\027W\211\300\332\351\277\300\264\234E\277\250\343\016\300\275\301\032@.oP<%\371$=\372\300NA\034E\221\300\3368\n\301AR4@\037\246`<\264Z\344@\3638\"=\010\177\225@<n\336?PE\220A;m\334\300\307B\303\3004\006=@J\337\222@\201\032+\277q\224Z<\264J\305?\023\3374=\244\375O@\310p\304\277\001\212\037\277X\000\312\300\362#\230=\210o\210@\312\3563A8\243\261\277\030\306\323@\036\337b=\333)2\300"
      }
    }
  }
}
node {
  name: "block_1_depthwise_BN/moving_variance"
  op: "Const"
  attr {
    key: "dtype"
    value {
      type: DT_FLOAT
    }
  }
  attr {
    key: "value"
    value {
      tensor {
        dtype: DT_FLOAT
        tensor_shape {
          dim {
            size: 96
          }
        }
        tensor_content: "\372r\267A\250\212\221Bi\247\374A\364\354GAl\023v?\nQ <\266\277DB\205\253\031@c\\\217;\375\313\031B~\323\311A5\'}?\234\264\005B\224)\223@i_VC\270`\370B<\3122B\"u&Ce\036\362B\356\020\203@H\355\317B\336\325\227B\016\364\237Bz-\325B\216\341KA\314#.@n\217\273A\321\344\023>\347\017\013>;\307\177B\321\026\233A\337\001\027CEM\232@\300\372\020D@\232*B*\300\264;q\363\306B\271\376G;.\037BA\260\252\000C\351\026 B\002,\021D?\264\353@Z8\n@\307\273\022A\242xkB\223\264s?V\267~@\233!\033B\334\244\244A~r\200B\216\215$B\006\260\206C\3014\002C\360\364\253B\240H\204A\235M\250B@\204\253? \323J@\247\325\202A#\245\005B\252\205bB\000\236\332?\227qDA\327@-A\301\377\n<\201{(<y`\277C\032\316\005B+\270\276B\214\330\321@\202=#;\016\3463B\232G\210;\326\266\235A\217\251(@\323s\317C\370\266\273B\247\352+BQ\330\330@\376[\354A\270WK?4\275\364:\256\024,@\001\027\254;T\r$A\204\224\005@\273\221\236?\200\341uB\227\233B<\331\251\250A,w\023C\365\326\031A,\3610B<\253\326;\217\371\207A"
      }
    }
  }
}
node {
  name: "block_1_depthwise_BN/FusedBatchNorm_1"
  op: "FusedBatchNorm"
  input: "block_1_depthwise/depthwise"
  input: "block_1_depthwise_BN/gamma"
  input: "block_1_depthwise_BN/beta"
  input: "block_1_depthwise_BN/moving_mean"
  input: "block_1_depthwise_BN/moving_variance"
  attr {
    key: "T"
    value {
      type: DT_FLOAT
    }
  }
  attr {
    key: "data_format"
    value {
      s: "NHWC"
    }
  }
  attr {
    key: "epsilon"
    value {
      f: 0.0010000000475
    }
  }
  attr {
    key: "is_training"
    value {
      b: false
    }
  }
}
node {
  name: "block_1_depthwise_relu/Relu6"
  op: "Relu6"
  input: "block_1_depthwise_BN/FusedBatchNorm_1"
  attr {
    key: "T"
    value {
      type: DT_FLOAT
    }
  }
}
node {
  name: "block_1_project/kernel"
  op: "Const"
  attr {
    key: "dtype"
    value {
      type: DT_FLOAT
    }
  }
  attr {
    key: "value"
    value {
      tensor {
        dtype: DT_FLOAT
        tensor_shape {
          dim {
            size: 1
          }
          dim {
            size: 1
          }
          dim {
            size: 96
          }
          dim {
            size: 24
          }
        }
        tensor_content: "\026@\r?]h\200?|g\244?0\024\005?\335\333J\277gv\236?\335\346\222\276\016\274\216?\253\216\313>%H\201\277\266\263\201\277\307\252\037\277\272\016]\277\232\033\240\276\334\030B\277\244sR=\376\250\221\277\315XF\277\273\363\250?]Y\250=\214\306#<\205\032A\277G\356E?\340-\331\275VK\020\2778\177\002?K\262\275>\252\231\237?\363L\276\277\242\356P?\363)\025\276:\376\217\277\326\366\353?\002]\227?q\024N?\341\242\r\272\207\000\315>\277x\374\2779\022\276\277l\003\250?\276\027\303\276\205;\233>4\351\035?\267\177\342\277\317\235\271?u\235\314?\336\226\204?\005c\372?\371J8\277Y\212\022\277\201y\206\276V\362\034?z\0352\276\347\342\036\275`\345\032\276\237\212\252\277\251\260$?\236b\232?\335\240R?\004\037y\275s\033\217?\227\227\366\276\340\005\210\274\213J\351\275\224\240\310\276\030\035`=\301-\177\275\371h\277\277<?\265?\370\230\235?\014R\266=(:\231?V\373\254\277\003\0248\277\006\205\361>\270\020\210\276\022\304\014?\206a\224>\206\360\272\277\256\262=\275\276DS\277\342\2610?\26064?\264l\320?\343\237\314>Sj\215\277\030\363\246?\304\017\025\276\001<^\277\020\204\301?e\203\005\277\3201\207>O\2257\277\203\317\265>~\363B?F\246\002\277\332\245\304>\006s\006\277\036\221\032\277\331\226\000?\353\273E>\247\354\312\275j\021\215?\362\342\027\277\033\276\004<\327\n\367\275\347\331\006\2763qF\277\273\036>?\235<0?\2723\026\275\036L\013\277<\324\213=\262\034h\277\361>\342=L\365M\277O\2437?\340\330\231>\2654\317\276\000\302\022?|zK?\n\037\351==\316\212\277\351j\224?\004\353e\277V\366\267\276\033N\337?\351X\013\277\336\361\222?1\226\253\276\241\372\344\276\\\302\227\277O\330\'\275\273\001\233>.,c\277\177\312_\276{\307P?:\025|\277B\306\363>\001l\221\277\351\353\275?P\302[>\256\000\253\276z\"\260?0\327_\277\250\222\035>\033\335\202?\330\225\206?\013l!?\243\014\024?\370q\203\277\314\232\214?\270\3255\277\241\372\272\277\200\003r\277\010\360\320>t\241\027\277\323b\334>\273\303q?\222\367>\277\207\334\213\276h\376\013\277]\014]?\307\267\225?\242\313_\276\224\342\271\277&u\304\276>\234A\277Pr\007\277\344J\247\276\3667\372>\362\315%\276\264\244f\276\225d\241>\271\030\\\277\023D\034>X)\272\275)X\260>\326\002\360>Q\020\010=\322\267\244>\3071\020\277!\n\372>]9\227:\345T\252\277\240\014)>6\317\205\276m\r\307\2756\200\251\276\365Q\031=\366\177\245>\357\220\213=%j\252\276\363j?\277\316\262\250\27679\304>\023B\246\276fp_\276\t\245\010>\376\356\277\277\252\315@?HB\340?10\251?\005\362\013\276\321\215\272?5\215\014\277\223m[\276B\344j>d\274\247\274{\314u>\245\256\351\276\024\267\364\277`~\357?\000\312\377?h\r\017\276\342s\227?>\211\232>f\251d?\027\300\372>\252\360(?\335p\254\276cad?6\020`>\253\342,?\252h\324\272\272\315P\277\272@\202\277\376\221\347\276\370\274z\277n\331\322>\347\333\352\275\037\237\206\276\260\2671\277\360\214\023\277\027ri?J]\353=\331\373\206>\227\034^\277\276J}>\357\2540=i\306.?]z\331\276\366@K\277\357f2?W\277\212\277Xd\247<\022\221\264?U}\274\277\000 \305?c\014\302?]\217\360>\211\\\243\2770\341\037?_\336(\2772\021\313\277\245\325\026?\'\307\\>\306\3418\277d\001\016?]\206\017\300q\025\007@}\242\345?6i\n?|*\013@~&\264<Q7*?(\345\241>\264\313\225?0\"\272\276\301;\017?IU\342=\216\214\234>\246w8?\350x.\277\277\347\325\276\035\033\024\277\364\327}\276\313\216B\276\\>\006\276/m\352\276\377\276\014\277\033\271m\277z\377_?\276\264\"\277;j\\?;\013\257\275\276\304\334>\221G\037?\rw\254>\2263\316\277\033>a\277\315\311G\277-\315W?\275\241\234\277\010\235\213?R[\346\277\270Kf=\020Z\273?\363\255\263?\'\316\005\277\3710\330?2gE?\353\005O?w\027\026\277\357\261\211>:0\205=\260x\214\277\230Q\273\277\305\\\231?\033\035\253?\036\004.\277\006,W?\252\366\341>\032\370\356>\211\215\300:\337\212\234\276\177\236.\277\207\312>?\341\351\322\276\0275\341>\350\034w\275\223\027\227\276\034\334\326\276\347\037\007\277\321\337\350\276\n+\007\276u\263\374\276\274\273\343=w~\253\277\014Lt\275\204\263=?\255\007\252\2769\354\262\276lG\000\277:\203\342>%R;\276\346a\347>\202\302\220>p\302\366>\036:\304<\256\341\307\277\356\360\014?\376\230\362\275\351 \311\274\370\271y?:)\001?#\361\220>y\027\006\277]\314\035\276_5\301\277I\314x\277\226(\323?\035ey\277l\t\326>\310D4?\245\3434\277\371\356\031?\377\033d?SE\357?\277\256m?P\273\005?G\200\241\277\245:~\277a\315\027\277~$\344>\004\235\214\277&\376]?$|\316\277\364\236\\\276\261\227\233?\216\342\234?X\365D\277\345?\327?$\242%?\3231a?\363\200\303\276\3008\003?\032\313\201\273^\027\244\277\226\237\303\277V\t\252?\335\375\251?K\022/\277yQ\031?\024\273\210\276\370}~?Q\313\277>F*;?7\346\203>#\0333?\314\325\306\275\210\342\253?8\177\375\275\230U\306\277\3504\271\277\"\315\025=oN\301\277\275\035\212?\005\243;>\032\037\367\276\237\215X\275\312\002\252\277z\233\241?\221\341\306>\tOC>\210I\262\277\253Y&\277jlo\276\206%\022?o\177\232?\240\231\377>\375>\253>\371\371K\276\013\020\245?\214\376\365\274Ic\236?E_\335=\351i\242\277\251\206\224\277\201}\t\277\245R\302\277\030\216\364>\027\037_\276\217GJ\275r\002\201\276\376>i\277\345\227\254?\333e\004?\367\007\265\276G\255\203\277w\007u>\303\321\320\276\r@9\277>\265\013?S\352\222?\370Hh?XY ?\277\037\207?suY\277s|\331?\346\362\t\277{N\353\277~\237\274\277g\\\025?#\322\215\277U\230q?uT\374>\340\372{\277\371\241\014\276GoC\277\032\262n?\2045`?`\334\327=\000Z\325\277^<\331\276\355\276\211\277\346\237\027@\340\020\301?c\347\346\277\232\266\352\275.#\277\277\016\260\324>\326\221\274?\363[v?\t\274\200?\355&\037\276\031\322\231\276\243|\343\277\213\344\310\277b\317R>4S\272\277?\234\227?\355\2028?y\250\216\277\215\351\276?2)_\277\364I*>\375\225k\274g\022!>\301\3409?I\254\301>h)\222?\357\013s?\207\230\026?D\256\014\277\016\035\243?e\001\266\275B\301\257?\032\353\001?x*\223\2774e\240\277\\<R\277\351E\303\277H\213\237>*\323\203\2762d\230\276\025\230\232\2763\203U\277\365o\335?\343\302\216>%\r\202\276\251\252h\277\356U\333>;cj\276\357@\257\276\241\2466?\023U\000>4\007\312?+\365\331\275\024\242\301>3\3001?-{\236?\300\346\303>\214\016\270\277\306\020\310\277G?\032\277\210t\270\277\371&J?\002\213\004\276\251\341\201\277\302\252r?\247\266\246\277\302\202\251?_\334\321>\306\005s?\331?\226\277\227\377\332\276\302\243\235\275\240\251\004?\007\323\330\277\333?\312\277\305v\\\277\212\356\207?\000T\247\277\272a\267?/Y\314\277\203m\324\276_\267`?\356\206z?\356\345\020\277\261\250\352?\337\001\300?\372\231g?\275\031v\277\212\206\027?\\\377\006>!\202\250\277\260\037\264\277\3265\225?\030oz?\326\300\201\277x:\n?\262\252\\?\213H\260?v\331^?\021y\200?\324\376O\277\'4\207?\376\350\207=\200\200\237?\016\367\274>\3625\240\277\255g\237\277w\016#\277\017\374\270\277HB\202>\022#\230\276\364+\267\276}\307\262\276\260\310\204\277\331[\311?\256\250&>\nY@\276\223\233\217\277\341!\240>\3555D>\331\322V\276f\223\001=j\375\005\275m\332\252?\235\300\\\277\002\374\250>\346\231A?\371\232_\277\270\363\177?\365\010$?\334Hs>Q\032\n\277\300\002\375>\030\014U\277\255C,\277\023o\300\276\343/\003\277\214\210G\276&\350\006?\300\317\203\277\224?\245?P\002\231?\016x\\?&\365\311?\316\221\256>\207\372W>%\0204\276\373,\207?b\252o\277\324\004n\275\037\306@?\314VL\277\000\374\200?\r\337\215>\255\356\323\275?\201\221\277NT\262>\323\007\001\277V\246d\277\300oj>\352\023\352\275\2656^\277\211C3?[\256\257\277e@\270?\252+K?\207\356\231>\305\301\246?NH\306\2758\324v?\332U\212\275\346),?\2677\033\276\272\251\177?\246\257\035;\325b\260?w!\345=&z~\277\004\000v\277\216\254\266\275\274\336\275\277L\tP?\245\215->\323\235h\276\016\366\317=\246\301a\277XV\235?\304*z>Ko\211\275\371\207\204\277\243^!\277v,\327\276\256\231\231\276\031 \031?\210\030\310=!B\307?D\331\212\276\205\200c?\346\027i\276f\013\305>\2230)?#\212\024\277P|\212\277\242\2707\276\"\320\234=y8\253\276m\200\266\274\201\350\017\277\207\271\276\2778:W\277\314\324]?aF\221\276V\222D?\027\2662\277\017f(>\200k\010>\204\326\240>8[8\2756\017\n\2762\034\023\275ICU\277I|G\276\257]\026?\177\330`\277\325k\365>\323}\200?xko?\322oi\277L`\341>\262C\224\276\265\217\264\276\361\002+?a\226\034\277\327\313Z\275\254\343k\275vF\253\277i\te?\307\205s?\236\370\034?l\236\237?\324\202\307?\241N\216?U{\266\277\345>\353\275\213v\022\277\302_\361>\007Wl?,\026X?\326\245\307>q\377\037\276~\243S\277\003\307\240\277jv\267\277\\\340\350=\3406\204\277\322\025\r?\365\200\247?\356\207\\\277\031\230\203?\2239h\275\253o\030>\271\360\365\275\251\213\210>\314\177\t>\3308\007@\303+\245?\376J\307\277\'\032%?p\306\272\277\250\252\371>\234\231\323?\377\256\220>Xk\270?3\226\272\276\200\347\006\277\200\335\007\300\033-|\277d\026*?\366\345\333\27743M?b\004\276?\272m\314\277 \241\252?it\212\277\233\224k?\351uy>\214>\307<\237\003\260?\344]v?\350\343\251\277G/\272\277b\327\'\277\336`\201?\247&\305\277\223x\305?r1\304\277\206\311\377\276*\252s?\207\306l?\202Y\222\277$)\320?2\203\204?t\202\224?f\357\265\277\321p\206?\346A\233\276\027\317\226\277\334\022\177\277\177\251\267?\335\034@?8\314\234\277\220\351P>8\331\326=F[\250?\253\203\355=&\236\027@\312O\246\277*\241\217?}6\203?X\334\353>S\302\220?\356\2563\277\324P\227\277\2523\177\277\353\361l\277\351\006R\276\315D\226\277\016$\371\276\207\270X>\002R\255\277\234N\001@\3345\007\277+\330\270?\317H\331\276\346\033??\336Z\205?^1\024?(\004\361>\237X\200?\021\255\204\276\034r\300\277:=\213?\000$)\277\3532\030\276[\310\364>\013\036\376>\304\365#?\20210\276H\023\264\276\357\020\362\277\216\270Z\277\006\177\010@\262\276\306\277]h\216>Pl\036?\254\346\032\277\327\270\014\275r>F?\330 \026@!`\027?\252\302\014>\205\207\371>^\202\206\275>\244\360>t\0351>.?3?\034:\277\274\275\325\212?\235\024X\2765\222R\277e\002\005\277M\302\220\275\247\364\326\276k\024\000?%\352\321>#\343(\277\2062&\277\345\362\027\277\302\313\300>\300\0348>\353\005\341\276qb\022\277\000\234,\2769\021\352\276\203\251|\276\n\177\336\276\2157\213\276|\356\260?@\276\324\277\275\3032?Y\036\200?8\257\326\277\341P\005@\311\367\216?\361\037\241>\'\232i\277\302\230\372>\241\331\371\277B\332\261\277k\276Z?\306\233\330>)#<\2762\251\037?\347\340\037\300\236\014\022@\245W\005@KUF?\024\204\351?\3212\361?\366M\251?\013\244#\277\233\251A\277v\0000\277\007W,?\2026{>\350<\200?\365~\361=N\363\342\275\260\277\006=}\214\213\2772\'\236\277\377H\344=\256\330\205\277\021\214\230?\316\264\371\275!#\031\277\"\324\023?\206\314\331\276^}\303\276\030\315Y\275`^\310>\202\026\247>Q\2256?pzw?\257\247\226>6\344\000\277\317\033\330\276\303\004\206?G\024\346\276\313\350\234?Apg\274\3104\032\277^\024l\276\211\033\020\277\337|\244\277\360\253\016=\016\346A\276\000\266\016?\332Nf\277\005\274\342\276\3575\033?\265\357\026>\246\032\205\277H\201\023\277\315\032\366=\263\302x\276\033\237_\276\315\305\231?\352\361\234>\005I\221?\244\002\257>i\210\216?\367\230\364\274\"9\350?\205B\210\2767W\330\277VN\262\277\246w+\2762\306\326\277\201\022e?\335AZ>\301\001F\277\00490?\022>\240\277\341\222\247?\232\3010?D\256\217\275\235_\237\277\217y\360\276\372I\307\276|\025\217\277\033\323V\277\277z\365\276rd\001>\027K\375\273\244\006\234\276\327?\002\277\351\314\322\277D\345\223>U\306\366?\\.\370?\0234L?U\210\314?\3008\361\276\241<\337>(\264\256=\021}\001\276\017@\254?\001\347k\277\212\257\242\277F\254\217?\223\'\323?\354|4>\242\256\"?yU%?\343\337\224?\200*%?.\034`?\325J8\277f\t\276?\255\007_\276_\222f?\332\010\323>\357\360\006\277\026\0332\277v$\001\277I\347v\277\016|\347\276\006\361\t\277#\351\202>\200\337h\277\327^\034\277\206<\311?B\330\357=V\351g>\230\312\310\276\233\362Z?e\307E>\000\245\032@<\374x?V\263\032=k\245\365\2769[\003\300\240\305\232?M(\025?\212\3040?\310I\246?w_\227\276\223`]\276\032\240\355\277\007\331s\277\253\300\256\276\356a\276\277-\363\255?\213\"(\277~\365\003\277lQ\244?Z\010e\277\370o\321>\303\371z\275\313\370\243?\265\rx?f\331\212?\232wv?\230\226k\276[\246\240?\025\201\336\277\005`[?\354\371\354?\026\357\320\276\335\037\022@\254s\223=\036P\321\276\t{\376\277\022\032\304\276\353(~\277&\370\007\300\365\021\222?Q\231I\276\346\356\256\277\346\365\262?\177\274\333\277\203C\367?\247\003\234?\035\200c?\002\261\013@\363\010\337>\r\261\206>V`\221\276\276\275!?\320\375\227\277\017U\361=4S\356>\030|a\276\333\216p?\354L-?\237\375\016?\221\214x\277\020-\237;\001\361g\277\352\343@\277\353\217j?\362\320,\276\003y\237\276\002\005\320>\235\027\255\277v\217:?e\364s?<.,?\305\215\251?\024\016\200\276?\241,?\031\247H?\251_-?v-w=\273\3372?l\347\330\275\332\310\213?r\252&\276R\353e\277 \321\211\277\037\214)\276\357\317r\277\2269 ?`\371\320>MX\340\276M_v\276\247\231d\277`\205\217?I\004\020>w\003[>\351\231\243\277Ri\275\276\021!\336\276\361\207J>\301\343\035\277A\333\'\277\251\017\233>\273\016\245\276p\363f\276$\347\033?\2530\214\277\224@,?ycP?+\2750?\031\374E\277\236U\220?S\366R=<\220W>qI\232\276\353\201V>i\306\002\276\242\274#\277\000\365\304\277\265\274\301?\000\325\273?\365\247\017=zc\242?3J\375>\352\257\001?\013![>\"\351\265?\277\351;\276)\351\217>\377\2414?JE*?\316\345U>C\344a\277\232\022\202\277d\275!\277\014>\364\276K\'W?\014\370W=n\211\231\277\246\\\261<\364\314\234\277\2564M?8/P=\202a$?\025\257\300\276\035\343b\276\345/\377>\205iB?\013\243g?\214\206\017?#\207\234>ZEw\277\341Mm?\357\3219\275Mw\236>\016\020\376>\351\035\215\275\322\010\004\277\241\214\271\276\'\2441\277\005\321<\277\250x$\277\004W\006?\273U;\277\345\344\016\277\n\332;?\355r\314\2769\237\000=\270\023s\276\276\3463?S\230\242>\262\2618?\317Jy?C\210\367\276P\317\370>\333\263\346\276Y\273I?To\357>\010\262\213?\036  ?\302>N\277J\226E\277,\004\256\277`\036\220\277\030\230\034?\323\340S\277\310;\215\275\231g\312>Y|\215\277W\017\265?WF\220=r\351\005?X\003\034\277\031yb>\036\326t>@;#\276&!G?v\307\325>tG\004?\263T\305>4\200\200?3\316\225\276\317b\214?\031\370\363\276\245-\250\277\340\332q\277\273\265o>\237\037\227\277\242\020R?\332\312\027>60\363\276\356q\372\276\220t)\277\375o.?Q\2305?T\353`\276t\'\212\277(\302\277\276\235D\022\277$(\007\277\316\3165?\272\374u?\307&\226?\003\356\234>8\226\211?\377B\253\276\025\215\302?5\201*\277\203W\334\2776@\233\277h\225C>\301\372\230\277\356U\203?\362S\'?\375\332i\277\264\320l\276\321\330|\277=\242\234?\325r\203?\361\352\n\275\314A\245\277Ig\372\276\376\302o\277\230h\221?\260\222\366\277b\374\352\277\312\267\211\277k1\224?\303\215\310\277\226Y\351?AE\262\277S>(\277m\t\237?\364\331\236?{\227\200\277\250v\335?\032r\320?g_\231?O\345\253\277\224\\\226?\334%c\276:Q\341\277\200\367\234\277T\007\240?\365\360u?\317\234\306\277a\336\202>Q\212\232>!\234\016?\220\223L?\024\004\304?\336\371\007\300\313Kx?\326\3724?i\221\034\277/\211\025@\344?\337>\323\211\317\275\300\262\224\277V\275>\276\343)\370\277,\356\310\277\213+\215?[\016\215\277\271\336L\277+v\236?DP\266\277\024\016\266?q\364\217?\002\356\020@4\022\000@;=\213?\261\262\266?\202,=?\261\235\031@\350+\364\277n1\274?\377-\330?]\256\264>\316\307\006@\376\357j\277.\304\261\277\322\253\357\277\347\263*\277\354\330)\277N\036\353\277g\312\010>m+\236\277\356\235\357\277\016\206\362?\223\272\244\277Ba\344?\027h\264:\000\233\215?TU\360?\210\032\315\27779\260\277(\360H\276\227\324\365>]\036[?\311k%\277,\2141\277\270*z\277*\203o\277\346\022\264>`\211$?a!\255?\214\226\234?\2225\212<\271!\327?3\017\255\277)C(>\375f\221?\216\026N\277Ax+>\312\255\343>J\277O>\277\010\'\277\200F\333\276\0214K\277\301\004A\277\210,\360=\370\250\352\276)\262\206?\223\027\262\276\020\203I\277\354U\303\276\366C\254\277\\\370\005?@\377\014?O\002N?\017\371X?\256 @?\221\273\304?6\271K\277r\0070\277}?s?9\025\203\277\224\373R>\365\324\030\277\230y\310\276\322jP\277Y\320\206\277\241\377\005\277\330Gg\2773\251\264\276\312\311\345\276\323\363\002?\367@\000\277\335[Z>\243M\315\277d!\243\275^K\367?\021\313\303?\2724\022?\334|\315?e\036\024>\303iL?>\000r\276\"\031\350=\024E\226?\246:\200\277J\303\264\277B\006\231?\3369\331?\354D}\276\026.c?\2518\321\276\017\243\332\274\311Y\267>Y\363\256?\2300+\277)JT?wP\202>\332\032\003>\274~e?6\357\370\276\014\214s\277\026\377F\276&k\274\276\035B\220\276\276\000\t\277vS>\277DI\307\276\177u\201\277&z@?\305V\214\276\314lG?F\022\327\276jB\010>\205\222^?\t\227\177\276\346\216\202>U\217!?_3\022?T\035\006\276ue\325>\254\006\342\276\321\362g?\221\202}=\004>G\277\320\216R\277\327\340S\275\337\235i\277E\253]>\0016\201>\211\t\022\277\024T\324\276\243+\t\277\357\351`?\315\200/?]\364\221\275\240\237\031\277\376\2434\276\323\253S\276\024\035&?\024y\034?5\367\010\277>\303\263?\232\001f\277g\225\'?NW\222?3\333\014>\206\256V?\025?1\277\240_\205\277OA\224\277\\\255\300\276\3328\366><\210\323\276\206\2709\277l\202H\277\r\251\272\277[\022\207?\211q\t\277\341\341\201?\035a\351\275\003CX\2749R\200?37\372=\020\3069?\014\274a?\354\327\256>bS+\277\330\245\342?9\232\223\276\373j\200?\306\376\201>\002\251\002\277\266\0076\277\321\017\221\275\253K\212\277\213\014\320\276\034\036\010\276\037lk>\237n\221\277 H\375\276\035ah?O-s>\004\233\031\277\000\213E\277\375\216\203?\205o\242\276\211\3046?\215\'\203?\334\350\202?\214$P?\013\263\251\276~a\255?\004\233y=\332]\213?\240\037b>\277\033\223\277e\234\234\277P}\035\277\270\032\255\277\325\r\240>Z\303\210\276\256\350B\276\254\345\023\277:\316Y\277\253\370\334?\242S\363>sb\342\274\364\007\212\277F2\352>\326r\276=\004\260\257?\231\344U?\222\t\346\275R?\315=+?\274\277\331\3178?\177\231o?\026i\346\275k\366\255?dJu=\266\270\177\276\207m\264\277\275E\245\276\356\321d\277sp\320\277\343b\225?rE\036\277\270K1\277F\346\225?\033\317\255\277\324\376D?K\375\242>%\177\206?\177\232\231?Yk\007\277\251\375\211\276v\226o?\333\203O\276=e\337=\211\224\354>a$\215\277\036\354@=Y\2453\277\023\332\325>\236W\006?\202\214@?\022?\346\274L\3161\277\235\0302?\321\225{=\253\031\026\277\350\251\204?\nA\206\276\t\227.?\002sG\277\231)I>\335\202r?\013\316&\277\272\214\"?\334\223(\275Rr\274\277\\mh?\255P@\277\246\203\002\277\306\033\275?\314Y{;\322}\237?\201\035\032\276%\022\351\276\315\267\275\277\373@\216\276X\304w?\262\315o\277\214\033O\277\2277H?q\211\263\277{;\\?\204\237T\277p\321\254?1\242_=\321\375m\277|R\214?\220\335\212=\0046\242=\253\310\235\276v\034\316?Uv\272\2778=n>\3731\240?4\357\307\277\347\377\363?\006\201\013?h\261\212>\202\372t\277D\233<?\366\330\313\277\302\233\302\277\034\212R>8\025 \276\341j\364\276Q\226<?\320M\344\277\324\343\023@\007\275\311?@\260\251?\232\246\377?QB\261>5h\004\277A\'2\277NlG?k]\274\276\177\016\014\277R^D?\272\357\273\277\003\0348?\365 \267?\335\0267?\370\267\202\277\022~\242?\262oP\276\214W/\277db\224\276\266\023\226\275t\324\254\276\354\344\231\276\215\373\362\277\233\230\337?\262{\325?~\305\202\276\250\014\325?9\010\266?D\205\205?\306\027\000>\027!\224?\021\315\370\277,\304n?\337\324\245?\311\017\254\274\026\204\343?f\256\\\276\332\031Q\277\003a\362\277\374MX\277s~k\277\370\t\372\277\023\372\025?X\230\301\275h\367\300\277aX\331?C\250\261\277w]\240?/\004\203>.\315\275?\373\230\265?c\217\220>M\373\224?1\215 ?\256r\016?\207\357\004\277N\036\262?\356\356g>\0034r?\254\262\257>y\306\211\277\360\246\203\277\250\357\340\276\327/\243\277\021\270\260=\230M\010\277\322\236\230<A\356[\277\251\2054\277\236\211\226?\3571\210>eT\014\276\243\2763\277\240n\255>m\0130=\372\310c\277y\325\216\277\372\274V\277\240\036j>W\254\232?Y\375 \277\210I*=\356=\210\277\205\341\016\277\303\274\327>p\3507?\343t\212?\303U\240?\271I\013?\221/\271?\354\r\246\277\217\252-?\273\222\031?\206\221_\277U\225\360\275\374v6?\320H\013>\243\310^\277\037\347\314\276\256\317\221?R_]?3b\026\277\022Z\344\276\264\311\010\277\276\366\014?%x\220>\302\373\324>\276\242A>\241r\216>\340\177\034>\007\236\020\277\350\221\200\277\311\035\240\274\247^\007\277r\223[?\3322\232?U\233\200>\362X/?pj\211\276\016\366\367\275f\177\035>\231\354]?\244}\336\275)W\014\276;\206\255?s\347W\277\020\000\023@M\2109\277\021\314\263?\300<\206?\352\036c?w\336\227?p\344\311\277\352k\t\300S\311\234\277x\311\240\277\007\201\207?\235\2242\277\243+j\277\373\205\243\276\207\270\025\300:\232\021@\300\357\274\276z\326\305?\241\314!\277\325\3414\276\334\312J?\260\337\376\276\311\262G?\374`J?\317)e?5`\252>v\364h?#\372\264\276U\325\245?=y9\276\010\323\254\277\313\300\241\277N\251\204<\3661\210\277y\221C?o\000\266>\354Ev\277&\201|<\203\362)\277s\372\205?\260\277G?\245\340\206>C\001\224\277\373{E\276U\347\311\276A\236\220\277T+\023\276A\322\216\275\034\323\302?H}\005?q)<?\031\023\005\274o\225\036?\263T\242\276\336\r\233\277\376i\321\277(\374K?\243\201:\2768|\261?\003\rh?]\227\253\277\223\"[>\265:;\277i\351%?\326\243f?\240R\320>\2453\235\277D0O\277\365\353T\277\335\305\223?%\305\231?\302\001%\2770\215\036\276\327*0\277\317B\022?\000r\t?\316\344J?\016\033\275>\3348\010\277ur\274\276\2663s\277\003mX\277\344\257\231>\n\365\371\276f\225\'=\271\213)>\2631&\277\377wJ?\21076\276\217\304J\275>\210\"\277\265*;>\365\210\214>\343\270\"\277<\307,?T[\001?s\216\273?\256\235>?%t\177?\014\352\017\276?\207\336??\264m\276\'\354\010\300\220\365\350\277\313$^>\350\304P\277#\253\342?\310\273\316>\251\253\252\277e\000$\276\321\324\252\277\253\014_?Wx\207?\267\035 >\030\375\325\277C\254\265\2772cT\277\310\257\320\277\026\321r>\213\000\231?w\241\003@\324\343\240?Zk\241?e\212\221\277\3417\341?\237W\232\277\240\030\001\300\214\344\350\277a\202\216?o.O\277\343!\264?c0\312?\233\267\375\277\377]\000>\266\210Z\277(s\217?\317\332\337?\005\347\351=\205\337\006\300O\031(\277\371N\335\27714K\277v\004\330\275w\034\255?\026\366P\275e\035\320=\217t\221?*\354\316\277\217\022\016?\210\204\303\276\030\200t\276\320\341\256=w\324}?\211\312c\276B\t<\277\264\026_?\002\234\216:|\311\251\277\212\270a?0\013\361>e\010\003?\317\342\204\277P\270\200\2763\326e?\310\n\033\277G+\032?\346\201r>\023O\214\277MIe\274@\211\010?\r\336?\277\270\037b?\234\225\322=?s\026\277\333\037\256\276\207\211\010\277N\211\014\277\303g\335\275\305\204\232?1_\337>\332s\024\277s\203\225\274W\322\337\276\345\351\204=\235\216\254\276+-\314>\236\350\243\276\204\306c\277\002\203\311\275\265\2455>j\202I?\325\3718?q\344g\275\320\204L>\312\342\023?\221$#\277\202{\256?Owe\276\r\037\030\277\242\027\r\277x\244\022\276qB\250\277DR\377=\356\002\363>\375=q\276\277\3579\277\350\212\217\276\177\236\371>\237E0?u.R\277\001v\207\277\3132\035>\001\365A\277\327t\001?\001.\212\276\313\250/\277.\034\"?A1\220\277:\311\213>\237\\\263?\000\213I\277\357\233\303?5\036\211?\343|\034?\373\317_\277\342\245r>\245T\204\277\262\000\314\277\376\177\211?\320\251\034?N6\351\276\201PV?\267X\006\300\221\r\316?\3160\267?I\314W?\003}\327?\204`\335>t\371\302\275\022\343L\277\nr5?\035\331\222\277\321\266J=\2562|?l\001i\277_\224\314?\024wE?\335[\277>\026\315\232\277L\346\034?\277X>\277\007\017\211\277\240\2345?\"\335\236>\344\304\207\276\351\376\036?Uf\323\277p6\324?T\277k?\355\0172?\007\330\332?\263\256\230?0/+?P\030\"\277j\324\335=\"fN\277\335zG?\026\231+?~\030\274>x~\006?\253A\241\276\367\246\342\276\321\375\210\277Tk \277\200\021\253>\313\263\224\277+\010\016?\235\241>\276\224\314z\277\212\035.?\226P\267\276\367hz>S\311H\276\316\256\361\275=\330\313>\261\3121?\'V1?\217\034\237=\004\346}?B\007n\277\323,\036?\010\341u?[\336(?\035\034v?\013\241\006\277\241\357d\277\321\254\200\277\254\2045\277c0m<fDd\277\225@\323\276h\305\024\273\356?\251\277\275\360\261?\010\340:\277\025\240v?\033\231\'\276\304gE>\n\034<?\323J\002?\252\212\035?\303\317\244?eJ\024@4.\025\300BL}?G\000d?\177(.\276\202m\n@\005\001[\276\215\017[\277\021e\262\277U]\020\277\274\303\256\277\374\343\346\277\3328\033?[\214\350\277sr\262\277\032g\265?_\002\333\277\023\274\375?>$ ?\"z\216?<7\002@\207&\351?\214\025&?\276\364]\277\2035P\276\207\002\213\277\272N\354>\201?F?\262\204\262=\033\277\031?\243a\261>0t+\276\003\355\203\277]\204G\277Z^\034\277w_}\277)^\241?\340\250\261?\375\333\352\276i\246^?,\021\316\276\323\331\023>\245\025\234>\261\030\212?\356\324R?\006\362,\276)\225\244\276(r\031\277\205\264\273>\252*\024\277\254\321\252\276\204\002\003?\363\246\227\277\357!D?\341\333\255?\226\231\233?\360\200\017\276\322\372\233?,Q\016\277\240\352#\277g\216\334>gF\272\276\211\357\341=\325\362\'\275\307\322\360\277:5\265?\333\210\245?E\217\007?\360\003\276?H\277\000?\023Q[?i\010-\276\372m~?\257\357`\277\253\001n?r\366\001?\354\3057>\026\345Z?\030\376\323\275\275\362\020\277\'\273R\277M\266\337\2768\033\210\276\225\226A\277o\272\021>\025\342G>\032P\026\277\370\346\247?\253 \010\277\016\360>?IC\031>~<\037?\340\020j?\271P\267>\364&\225?,],??o^?\255\223\016\277?g\216?\207\004M<\365I\207?g\324\014>\222\265\223\277Z\200\\\277\006\351b\277\254\321\257\277\340\247\010?\200l\013\276o\327q\276\327a/\277g\235g\277\343E\305?\346X\346>\330\267\337\276\n\302R\277\372c\234>\253\215\243\276\232\373\204>\235\001\325\277\322\325\242\277\252\200\030\277\333\005;?q\360\234\277i\001\237?/\324\002\300\243\274\356\275[%\345?\321\352\223?O\354X\277\000\020\345?\304\205N?\262\274\024?-\017-\277\357\014\377>Q\031=>\224n\260\277\367U\341\277\214\220\334?\323\202\245?U(\206\277,7\207?\230\302\357\276\304o%?\265\330\007?@\036\245>R72>\177\301\264>\351\237\237\276D\\x?\300.\275\276\377\020\203\277.\357\033\277d\277A>\222\2702\277\n\370X?d\026\031?\305\000\017\277\021\245U\277\232\326\224\276\2719\357>\226\340\350>K\346\215\276\262\3613\277\302QY\277\347\031h\276\317F\337\2750\224\337>\3511*?\267k\032@{\022\236\277\364\336\215?mr\016?\022\205\321\276\026\034\324?s$\327\276\314\020P\277\236#<\277i\010^\276\342M}\277\004\nD\277\336*\n\276p\001\320\277a\236\237\277\325zy?\370\327\215\277K\265\316?\227\255\361>\337!~?\246\016\307?\273\255\313?\271O\245?y\245\023?#Q\016@\346\220\312\277\361s\241?E\324\010@\305u\\?\271\330\t@\304\364\274\277\177\332\360\277\030\332\024\300\364\010\246\277\375!1>\206\350\316\277\r%\326\275\306i\215\277\276A\036\3001A\006@\351@[\277-T\313?\257\340\211\275\224\257\315<\007\000\265?|\375\003\277\022\004k?(_\021?!z\254?\261{\r?\247\221H?0p\215\276\247Pk?\334\214\271\275 \374\226\277\344\256\274\277\206\240\246>l\254I\277\261f??\265\0160>\374\325Y\277%\347\017?\241\316@\277\206\205\214?\000\306x>\251\237T?@$z\277\316co\277\217f\304\276\226$2?t\004\312\277\350b\262\277\255en\277$j\207?\3532\257\277\235!f?R\250\363\277\233\334\010\277\262A\336?$R\320?\313\345\320\275\371S\357?\031\360G?\027r\224?\352nc\277\257\271)?\323\346\001?@\277\311\277\372\217\237\277r\347\235?\027\337\252?\240)\221\277\261_\034?\216\222\246\2778\206\216\277\034\014\224\276%\344\277>\375Z\235?q\230\342\276~\006\201\2763&\373\2767J2\277\335\325\304=\203\323\372=\262\030\240?\337T\230?g\372\'?!R\336?\374.\254\277\300\322\252=\310\004.?\322{\204\277\260\334+>{\317\347>\203\207\264\274\007$^\277\323\314F\277"
      }
    }
  }
}
node {
  name: "block_1_project/convolution"
  op: "Conv2D"
  input: "block_1_depthwise_relu/Relu6"
  input: "block_1_project/kernel"
  attr {
    key: "T"
    value {
      type: DT_FLOAT
    }
  }
  attr {
    key: "data_format"
    value {
      s: "NHWC"
    }
  }
  attr {
    key: "dilations"
    value {
      list {
        i: 1
        i: 1
        i: 1
        i: 1
      }
    }
  }
  attr {
    key: "padding"
    value {
      s: "SAME"
    }
  }
  attr {
    key: "strides"
    value {
      list {
        i: 1
        i: 1
        i: 1
        i: 1
      }
    }
  }
  attr {
    key: "use_cudnn_on_gpu"
    value {
      b: true
    }
  }
}
node {
  name: "block_1_project_BN/gamma"
  op: "Const"
  attr {
    key: "dtype"
    value {
      type: DT_FLOAT
    }
  }
  attr {
    key: "value"
    value {
      tensor {
        dtype: DT_FLOAT
        tensor_shape {
          dim {
            size: 24
          }
        }
        tensor_content: "8\300\203@\372\027+@3\264.@k\350\210@\237\202r@p \005@\341\\c@\216o>@\006\026c@\374?A@\014?I@S\004b@\372\2459@^|`@\330\224o@t\227l@__Q@\303\3259@\247\235;@\204\004K@=\224]@^!>@}\212m@YbO@"
      }
    }
  }
}
node {
  name: "block_1_project_BN/beta"
  op: "Const"
  attr {
    key: "dtype"
    value {
      type: DT_FLOAT
    }
  }
  attr {
    key: "value"
    value {
      tensor {
        dtype: DT_FLOAT
        tensor_shape {
          dim {
            size: 24
          }
        }
        tensor_content: "\335R3=\330~k>\372%\305<1\267\350>B\243\017\277\375l\333>\"\345\214=\202\367M\276\266\0059?.\033\022>\200\372\222\275\251\tz\276g/:>\316\031\n\277\344\270\273\276K\315\224>\'B\034\2776E\373\275@p\323>\275\346+\277\307Z!?7\312\205>\337\360\334>\356\024\'?"
      }
    }
  }
}
node {
  name: "block_1_project_BN/moving_mean"
  op: "Const"
  attr {
    key: "dtype"
    value {
      type: DT_FLOAT
    }
  }
  attr {
    key: "value"
    value {
      tensor {
        dtype: DT_FLOAT
        tensor_shape {
          dim {
            size: 24
          }
        }
        tensor_content: "\034\347\265A\366\322\000BX\202R@\0377wB\360f\'\3024\014HBy\327\367APy{A\225\306+BA]\227\301\252\375\372\301\343\335A\302\352\345\333\301\324\342\032>\307<\305\301\023\377\026\301\354\305\265\301\324\003M\302\037\225\202Bi\2323\302b\224rB\233\246*\276\256T\250A\232u-B"
      }
    }
  }
}
node {
  name: "block_1_project_BN/moving_variance"
  op: "Const"
  attr {
    key: "dtype"
    value {
      type: DT_FLOAT
    }
  }
  attr {
    key: "value"
    value {
      tensor {
        dtype: DT_FLOAT
        tensor_shape {
          dim {
            size: 24
          }
        }
        tensor_content: "\206\251\333D\330IVEV\002\243DM\203\210D\264\237\374D\365Y\027E\305.\230D\216\214\310E\027|\300D\340G\264E\203\033\215E\257>\315D\230\340\261E\036\240\303D\017Z\005E\277%\313D\211\204cC\240\034\342DbhmE\307OtE:+\362DV\360\250EI\226\226D&\361,E"
      }
    }
  }
}
node {
  name: "block_1_project_BN/FusedBatchNorm_1"
  op: "FusedBatchNorm"
  input: "block_1_project/convolution"
  input: "block_1_project_BN/gamma"
  input: "block_1_project_BN/beta"
  input: "block_1_project_BN/moving_mean"
  input: "block_1_project_BN/moving_variance"
  attr {
    key: "T"
    value {
      type: DT_FLOAT
    }
  }
  attr {
    key: "data_format"
    value {
      s: "NHWC"
    }
  }
  attr {
    key: "epsilon"
    value {
      f: 0.0010000000475
    }
  }
  attr {
    key: "is_training"
    value {
      b: false
    }
  }
}
node {
  name: "block_2_expand/kernel"
  op: "Const"
  attr {
    key: "dtype"
    value {
      type: DT_FLOAT
    }
  }
  attr {
    key: "value"
    value {
      tensor {
        dtype: DT_FLOAT
        tensor_shape {
          dim {
            size: 1
          }
          dim {
            size: 1
          }
          dim {
            size: 24
          }
          dim {
            size: 144
          }
        }
